{
  "version": "1.0",
  "truncation": null,
  "padding": null,
  "added_tokens": [
    {
      "id": 0,
      "content": "[UNK]",
      "single_word": false,
      "lstrip": false,
      "rstrip": false,
      "normalized": false,
      "special": true
    },
    {
      "id": 1,
      "content": "[CLS]",
      "single_word": false,
      "lstrip": false,
      "rstrip": false,
      "normalized": false,
      "special": true
    },
    {
      "id": 2,
      "content": "[SEP]",
      "single_word": false,
      "lstrip": false,
      "rstrip": false,
      "normalized": false,
      "special": true
    },
    {
      "id": 3,
      "content": "[PAD]",
      "single_word": false,
      "lstrip": false,
      "rstrip": false,
      "normalized": false,
      "special": true
    },
    {
      "id": 4,
      "content": "[MASK]",
      "single_word": false,
      "lstrip": false,
      "rstrip": false,
      "normalized": false,
      "special": true
    }
  ],
  "normalizer": null,
  "pre_tokenizer": {
    "type": "Whitespace"
  },
  "post_processor": null,
  "decoder": null,
  "model": {
    "type": "BPE",
    "dropout": null,
    "unk_token": null,
    "continuing_subword_prefix": null,
    "end_of_word_suffix": null,
    "fuse_unk": false,
    "byte_fallback": false,
    "vocab": {
      "[UNK]": 0,
      "[CLS]": 1,
      "[SEP]": 2,
      "[PAD]": 3,
      "[MASK]": 4,
      "!": 5,
      "\"": 6,
      "'": 7,
      "(": 8,
      ")": 9,
      ",": 10,
      "-": 11,
      ".": 12,
      "0": 13,
      "1": 14,
      "2": 15,
      "3": 16,
      "4": 17,
      "5": 18,
      "6": 19,
      "7": 20,
      "8": 21,
      "9": 22,
      ":": 23,
      ";": 24,
      "?": 25,
      "A": 26,
      "B": 27,
      "C": 28,
      "D": 29,
      "E": 30,
      "F": 31,
      "G": 32,
      "H": 33,
      "I": 34,
      "J": 35,
      "K": 36,
      "L": 37,
      "M": 38,
      "N": 39,
      "O": 40,
      "P": 41,
      "Q": 42,
      "R": 43,
      "S": 44,
      "T": 45,
      "U": 46,
      "V": 47,
      "W": 48,
      "X": 49,
      "Y": 50,
      "a": 51,
      "b": 52,
      "c": 53,
      "d": 54,
      "e": 55,
      "f": 56,
      "g": 57,
      "h": 58,
      "i": 59,
      "j": 60,
      "k": 61,
      "l": 62,
      "m": 63,
      "n": 64,
      "o": 65,
      "p": 66,
      "q": 67,
      "r": 68,
      "s": 69,
      "t": 70,
      "u": 71,
      "v": 72,
      "w": 73,
      "x": 74,
      "y": 75,
      "z": 76,
      "—": 77,
      "’": 78,
      "“": 79,
      "”": 80,
      "…": 81,
      "收": 82,
      "整": 83,
      "理": 84,
      "萄": 85,
      "葡": 86,
      "西": 87,
      "集": 88,
      "﻿": 89,
      "he": 90,
      "the": 91,
      "an": 92,
      "in": 93,
      "and": 94,
      "is": 95,
      "re": 96,
      "th": 97,
      "ou": 98,
      "at": 99,
      "as": 100,
      "er": 101,
      "on": 102,
      "ed": 103,
      "ing": 104,
      "to": 105,
      "of": 106,
      "ll": 107,
      "it": 108,
      "st": 109,
      "ar": 110,
      "ld": 111,
      "en": 112,
      "no": 113,
      "or": 114,
      "le": 115,
      "gh": 116,
      "ad": 117,
      "his": 118,
      "me": 119,
      "was": 120,
      "id": 121,
      "se": 122,
      "ght": 123,
      "be": 124,
      "The": 125,
      "wi": 126,
      "hi": 127,
      "ac": 128,
      "man": 129,
      "ow": 130,
      "He": 131,
      "ut": 132,
      "ve": 133,
      "ro": 134,
      "fis": 135,
      "al": 136,
      "old": 137,
      "es": 138,
      "that": 139,
      "we": 140,
      "ay": 141,
      "ly": 142,
      "fish": 143,
      "sa": 144,
      "sh": 145,
      "him": 146,
      "ould": 147,
      "with": 148,
      "ti": 149,
      "oo": 150,
      "--": 151,
      "li": 152,
      "un": 153,
      "not": 154,
      "fe": 155,
      "bo": 156,
      "ag": 157,
      "ain": 158,
      "ch": 159,
      "all": 160,
      "ke": 161,
      "ver": 162,
      "had": 163,
      "thou": 164,
      "for": 165,
      "so": 166,
      "ir": 167,
      "ha": 168,
      "ri": 169,
      "ur": 170,
      "said": 171,
      "now": 172,
      "you": 173,
      "ent": 174,
      "lin": 175,
      "out": 176,
      "But": 177,
      "co": 178,
      "mo": 179,
      "ne": 180,
      "ce": 181,
      "thought": 182,
      "one": 183,
      "ther": 184,
      "have": 185,
      "hand": 186,
      "am": 187,
      "are": 188,
      "if": 189,
      "wat": 190,
      "were": 191,
      "do": 192,
      "il": 193,
      "line": 194,
      "mu": 195,
      "way": 196,
      "ack": 197,
      "ge": 198,
      "ter": 199,
      "ill": 200,
      "ight": 201,
      "whe": 202,
      "wh": 203,
      "ark": 204,
      "again": 205,
      "sp": 206,
      "rom": 207,
      "----": 208,
      "de": 209,
      "ook": 210,
      "could": 211,
      "from": 212,
      "thing": 213,
      "ast": 214,
      "them": 215,
      "reat": 216,
      "they": 217,
      "It": 218,
      "up": 219,
      "own": 220,
      "ep": 221,
      "too": 222,
      "water": 223,
      "can": 224,
      "tr": 225,
      "boy": 226,
      "mp": 227,
      "ca": 228,
      "ck": 229,
      "ide": 230,
      "ong": 231,
      "lo": 232,
      "ard": 233,
      "ion": 234,
      "su": 235,
      "would": 236,
      "will": 237,
      "ta": 238,
      "back": 239,
      "her": 240,
      "ood": 241,
      "hed": 242,
      "ull": 243,
      "down": 244,
      "ming": 245,
      "str": 246,
      "when": 247,
      "nd": 248,
      "time": 249,
      "sk": 250,
      "head": 251,
      "great": 252,
      "ss": 253,
      "ft": 254,
      "pe": 255,
      "po": 256,
      "go": 257,
      "ig": 258,
      "some": 259,
      "see": 260,
      "then": 261,
      "must": 262,
      ",\"": 263,
      "there": 264,
      "te": 265,
      "wor": 266,
      "red": 267,
      "per": 268,
      "ade": 269,
      "shark": 270,
      "lf": 271,
      "wo": 272,
      "Then": 273,
      "but": 274,
      "other": 275,
      "con": 276,
      "art": 277,
      "more": 278,
      "ab": 279,
      "ak": 280,
      "low": 281,
      "what": 282,
      "ore": 283,
      "pp": 284,
      "der": 285,
      "side": 286,
      "ue": 287,
      "our": 288,
      "br": 289,
      "fee": 290,
      "has": 291,
      "pl": 292,
      "very": 293,
      "did": 294,
      "new": 295,
      "Heming": 296,
      "come": 297,
      "iff": 298,
      "Hemingway": 299,
      "ex": 300,
      "over": 301,
      "should": 302,
      "cle": 303,
      "day": 304,
      "lt": 305,
      "ink": 306,
      "ers": 307,
      "self": 308,
      "ace": 309,
      "bl": 310,
      "tur": 311,
      "this": 312,
      "ct": 313,
      "against": 314,
      "look": 315,
      "into": 316,
      "ren": 317,
      "ough": 318,
      "ste": 319,
      "my": 320,
      "two": 321,
      "us": 322,
      "only": 323,
      "sea": 324,
      "af": 325,
      "ju": 326,
      "know": 327,
      "ry": 328,
      "sun": 329,
      "its": 330,
      "boat": 331,
      "much": 332,
      "ant": 333,
      "ound": 334,
      "ho": 335,
      "ma": 336,
      "men": 337,
      "any": 338,
      "ind": 339,
      "been": 340,
      "like": 341,
      "--------": 342,
      "et": 343,
      "pull": 344,
      "They": 345,
      "get": 346,
      "good": 347,
      "light": 348,
      "cl": 349,
      "fore": 350,
      "hat": 351,
      "made": 352,
      "ra": 353,
      "their": 354,
      "left": 355,
      "skiff": 356,
      ".)": 357,
      "You": 358,
      "by": 359,
      "eat": 360,
      "kill": 361,
      "long": 362,
      "tle": 363,
      "ven": 364,
      "oud": 365,
      "ess": 366,
      "well": 367,
      "mb": 368,
      "saw": 369,
      "dark": 370,
      "ive": 371,
      "knew": 372,
      "ple": 373,
      "think": 374,
      "rit": 375,
      "tion": 376,
      "hands": 377,
      "feel": 378,
      "ble": 379,
      "ic": 380,
      "ps": 381,
      "himself": 382,
      "ird": 383,
      "work": 384,
      "ting": 385,
      "ach": 386,
      "In": 387,
      "ment": 388,
      "qu": 389,
      "ul": 390,
      "than": 391,
      "ation": 392,
      "about": 393,
      "turn": 394,
      "cut": 395,
      "fast": 396,
      "There": 397,
      "felt": 398,
      "right": 399,
      "who": 400,
      "?\"": 401,
      "Now": 402,
      "bre": 403,
      "big": 404,
      "writ": 405,
      "ish": 406,
      "came": 407,
      "av": 408,
      "dre": 409,
      "lp": 410,
      "whi": 411,
      "ate": 412,
      "bird": 413,
      "pro": 414,
      "ure": 415,
      "bet": 416,
      "where": 417,
      "stead": 418,
      "No": 419,
      "ath": 420,
      "put": 421,
      "went": 422,
      "ye": 423,
      "read": 424,
      "still": 425,
      "end": 426,
      "leep": 427,
      "fisher": 428,
      "che": 429,
      "hun": 430,
      "hook": 431,
      "sw": 432,
      "thr": 433,
      "ars": 434,
      "under": 435,
      "though": 436,
      "looked": 437,
      "ba": 438,
      "use": 439,
      "ved": 440,
      "ity": 441,
      "before": 442,
      "many": 443,
      "sail": 444,
      "cr": 445,
      "pt": 446,
      "ped": 447,
      "slow": 448,
      "ous": 449,
      "ally": 450,
      "your": 451,
      "spe": 452,
      "after": 453,
      "bow": 454,
      "cir": 455,
      "ched": 456,
      "ick": 457,
      "night": 458,
      "ite": 459,
      "ster": 460,
      "let": 461,
      "aloud": 462,
      "pped": 463,
      "make": 464,
      ",”": 465,
      "har": 466,
      "ked": 467,
      "sto": 468,
      "ward": 469,
      "ried": 470,
      "mber": 471,
      "lit": 472,
      "ms": 473,
      "si": 474,
      "shi": 475,
      "int": 476,
      "nor": 477,
      "ross": 478,
      "irst": 479,
      "face": 480,
      "sm": 481,
      "uck": 482,
      "rest": 483,
      "took": 484,
      "through": 485,
      "And": 486,
      "If": 487,
      "di": 488,
      "pre": 489,
      "ten": 490,
      "times": 491,
      "hit": 492,
      "ub": 493,
      "ort": 494,
      "take": 495,
      "first": 496,
      "how": 497,
      "sl": 498,
      "ving": 499,
      "off": 500,
      "nothing": 501,
      "life": 502,
      "most": 503,
      "never": 504,
      "try": 505,
      "tail": 506,
      "air": 507,
      "cur": 508,
      "ey": 509,
      "fin": 510,
      "far": 511,
      "gth": 512,
      "hin": 513,
      "ily": 514,
      "ze": 515,
      "orn": 516,
      "less": 517,
      "across": 518,
      "show": 519,
      "keep": 520,
      "dream": 521,
      "lphin": 522,
      "slowly": 523,
      "stern": 524,
      "little": 525,
      "aw": 526,
      "bad": 527,
      "clo": 528,
      "even": 529,
      "each": 530,
      "op": 531,
      "row": 532,
      "sin": 533,
      "sleep": 534,
      "tre": 535,
      "held": 536,
      "start": 537,
      "set": 538,
      "cause": 539,
      "something": 540,
      "just": 541,
      "jump": 542,
      ".(": 543,
      "Af": 544,
      "So": 545,
      "ather": 546,
      "car": 547,
      "fly": 548,
      "fight": 549,
      "hard": 550,
      "ris": 551,
      "another": 552,
      "til": 553,
      "haps": 554,
      "watched": 555,
      "dolphin": 556,
      "strong": 557,
      "sharks": 558,
      "Whe": 559,
      "every": 560,
      "luck": 561,
      "sc": 562,
      "want": 563,
      "stren": 564,
      "vel": 565,
      "until": 566,
      "point": 567,
      "bring": 568,
      "----------------": 569,
      "small": 570,
      "eyes": 571,
      "19": 572,
      "What": 573,
      "away": 574,
      "bed": 575,
      "cor": 576,
      "care": 577,
      "dis": 578,
      "fre": 579,
      "ank": 580,
      "ine": 581,
      "ence": 582,
      "comp": 583,
      "aking": 584,
      "clear": 585,
      "rent": 586,
      "started": 587,
      "His": 588,
      "bro": 589,
      "dro": 590,
      "ever": 591,
      "gone": 592,
      "io": 593,
      "kn": 594,
      "las": 595,
      "pain": 596,
      "wa": 597,
      "wish": 598,
      "heav": 599,
      "ang": 600,
      "reme": 601,
      "because": 602,
      "ways": 603,
      "deep": 604,
      "bait": 605,
      "cram": 606,
      "open": 607,
      "flying": 608,
      "When": 609,
      "strength": 610,
      "That": 611,
      "full": 612,
      "ife": 613,
      "mast": 614,
      "ru": 615,
      "she": 616,
      "sed": 617,
      "sur": 618,
      "ist": 619,
      "ought": 620,
      "ase": 621,
      "arm": 622,
      "almost": 623,
      "age": 624,
      "lines": 625,
      "coil": 626,
      "things": 627,
      "poon": 628,
      "going": 629,
      "which": 630,
      "harpoon": 631,
      "ail": 632,
      "creat": 633,
      "ful": 634,
      "hu": 635,
      "hur": 636,
      "mou": 637,
      "ness": 638,
      "od": 639,
      "ople": 640,
      "pr": 641,
      "tain": 642,
      "wood": 643,
      "ance": 644,
      "ated": 645,
      "around": 646,
      "beg": 647,
      "act": 648,
      "always": 649,
      "spo": 650,
      "shoulders": 651,
      "pulled": 652,
      "current": 653,
      "knife": 654,
      "heavy": 655,
      "ap": 656,
      "book": 657,
      "cour": 658,
      "hold": 659,
      "hour": 660,
      "jaw": 661,
      "mat": 662,
      "tun": 663,
      "wing": 664,
      "ange": 665,
      "arly": 666,
      "lean": 667,
      "high": 668,
      "aybe": 669,
      "without": 670,
      "com": 671,
      "tell": 672,
      "feeling": 673,
      "better": 674,
      "fisherman": 675,
      "fishermen": 676,
      "This": 677,
      "ave": 678,
      "ced": 679,
      "ces": 680,
      "land": 681,
      "lat": 682,
      "mar": 683,
      "oce": 684,
      "pi": 685,
      "pas": 686,
      "say": 687,
      "ty": 688,
      "ust": 689,
      "ise": 690,
      "tor": 691,
      "stay": 692,
      "along": 693,
      "does": 694,
      "stra": 695,
      "people": 696,
      "club": 697,
      "while": 698,
      "circle": 699,
      "simp": 700,
      "surface": 701,
      "ocean": 702,
      "cal": 703,
      "call": 704,
      "dr": 705,
      "eze": 706,
      "je": 707,
      "part": 708,
      "ser": 709,
      "swi": 710,
      "sal": 711,
      "vo": 712,
      "here": 713,
      "thre": 714,
      "asked": 715,
      "llow": 716,
      "seen": 717,
      "ves": 718,
      "alf": 719,
      "weight": 720,
      "lic": 721,
      "char": 722,
      "ket": 723,
      "coming": 724,
      "moved": 725,
      "death": 726,
      "peri": 727,
      "experi": 728,
      "breeze": 729,
      "writing": 730,
      "remember": 731,
      "jaws": 732,
      "straight": 733,
      "Co": 734,
      "For": 735,
      "Man": 736,
      "bu": 737,
      "ball": 738,
      "dy": 739,
      "dri": 740,
      "fing": 741,
      "fle": 742,
      "half": 743,
      "ken": 744,
      "la": 745,
      "led": 746,
      "ring": 747,
      "sard": 748,
      "tried": 749,
      "wind": 750,
      "ides": 751,
      "acter": 752,
      "ached": 753,
      "ween": 754,
      "till": 755,
      "both": 756,
      "happ": 757,
      "cannot": 758,
      "tru": 759,
      "sure": 760,
      "strange": 761,
      "skill": 762,
      "exce": 763,
      "turned": 764,
      "steady": 765,
      "steadily": 766,
      "swam": 767,
      "story": 768,
      "After": 769,
      "character": 770,
      "How": 771,
      "aut": 772,
      "aper": 773,
      "bone": 774,
      "ef": 775,
      "gr": 776,
      "mi": 777,
      "might": 778,
      "morn": 779,
      "oars": 780,
      "pur": 781,
      "sme": 782,
      "ted": 783,
      "won": 784,
      "wide": 785,
      "these": 786,
      "inn": 787,
      "ons": 788,
      "onto": 789,
      "once": 790,
      "toge": 791,
      "stri": 792,
      "enough": 793,
      "meat": 794,
      "beaut": 795,
      "rose": 796,
      "rope": 797,
      "alone": 798,
      "sha": 799,
      "tired": 800,
      "ago": 801,
      "need": 802,
      "conf": 803,
      "used": 804,
      "between": 805,
      "hooked": 806,
      "since": 807,
      "treac": 808,
      "Some": 809,
      "everything": 810,
      "mouth": 811,
      "tuna": 812,
      "leaned": 813,
      "morning": 814,
      "smell": 815,
      "together": 816,
      "San": 817,
      "base": 818,
      "cold": 819,
      "ction": 820,
      "ea": 821,
      "foo": 822,
      "hy": 823,
      "sli": 824,
      "ering": 825,
      "ary": 826,
      "mean": 827,
      "beat": 828,
      "ung": 829,
      "agg": 830,
      "ching": 831,
      "choo": 832,
      "form": 833,
      "ently": 834,
      "moving": 835,
      "gest": 836,
      "white": 837,
      "such": 838,
      "ign": 839,
      "play": 840,
      "blue": 841,
      "turtle": 842,
      "hope": 843,
      "ready": 844,
      "circl": 845,
      "cord": 846,
      "fully": 847,
      "coils": 848,
      "hurt": 849,
      "course": 850,
      "three": 851,
      "purple": 852,
      "treacher": 853,
      ").": 854,
      "Do": 855,
      "Maybe": 856,
      "On": 857,
      "Old": 858,
      "Per": 859,
      "Sea": 860,
      "ci": 861,
      "des": 862,
      "eas": 863,
      "ff": 864,
      "found": 865,
      "give": 866,
      "im": 867,
      "imp": 868,
      "loo": 869,
      "om": 870,
      "schoo": 871,
      "tal": 872,
      "tri": 873,
      "ines": 874,
      "noon": 875,
      "novel": 876,
      "road": 877,
      "moon": 878,
      "true": 879,
      "love": 880,
      "strain": 881,
      "fted": 882,
      "perhaps": 883,
      "brought": 884,
      "feet": 885,
      "place": 886,
      "days": 887,
      "yellow": 888,
      "hung": 889,
      "showed": 890,
      "fresh": 891,
      "ject": 892,
      "swim": 893,
      "sardines": 894,
      "tiller": 895,
      "wonder": 896,
      "baseball": 897,
      "school": 898,
      "\"(": 899,
      "God": 900,
      "Th": 901,
      "We": 902,
      "bor": 903,
      "cess": 904,
      "dred": 905,
      "el": 906,
      "eight": 907,
      "east": 908,
      "early": 909,
      "fri": 910,
      "gaf": 911,
      "ies": 912,
      "ice": 913,
      "lay": 914,
      "last": 915,
      "pat": 916,
      "par": 917,
      "que": 918,
      "race": 919,
      "sen": 920,
      "swe": 921,
      "ulf": 922,
      "war": 923,
      "ished": 924,
      "ond": 925,
      "told": 926,
      "aced": 927,
      "shack": 928,
      "tiago": 929,
      "sol": 930,
      "soon": 931,
      "spur": 932,
      "sub": 933,
      "sug": 934,
      "sky": 935,
      "able": 936,
      "shoulder": 937,
      "clean": 938,
      "boats": 939,
      "male": 940,
      "writer": 941,
      "hundred": 942,
      "close": 943,
      "lash": 944,
      "hours": 945,
      "marlin": 946,
      "calm": 947,
      "called": 948,
      "truly": 949,
      "beautif": 950,
      "Santiago": 951,
      "foot": 952,
      "circling": 953,
      "Perhaps": 954,
      "gaff": 955,
      "Eat": 956,
      "bull": 957,
      "den": 958,
      "est": 959,
      "ech": 960,
      "fath": 961,
      "father": 962,
      "gro": 963,
      "jer": 964,
      "min": 965,
      "med": 966,
      "may": 967,
      "oar": 968,
      "ose": 969,
      "pick": 970,
      "sit": 971,
      "sor": 972,
      "ult": 973,
      "xt": 974,
      "inter": 975,
      "reen": 976,
      "reached": 977,
      "toward": 978,
      "ited": 979,
      "arn": 980,
      "ened": 981,
      "leg": 982,
      "alan": 983,
      "although": 984,
      "tight": 985,
      "lions": 986,
      "fect": 987,
      "body": 988,
      "moment": 989,
      "spread": 990,
      "ions": 991,
      "taken": 992,
      "word": 993,
      "blood": 994,
      "knows": 995,
      "cloud": 996,
      "qui": 997,
      "ures": 998,
      "rested": 999,
      "slant": 1000,
      "scent": 1001,
      "began": 1002,
      "except": 1003,
      "characters": 1004,
      "aggio": 1005,
      "treachery": 1006,
      "Di": 1007,
      "Don": 1008,
      "Just": 1009,
      "Maggio": 1010,
      "Ter": 1011,
      "abo": 1012,
      "bit": 1013,
      "cre": 1014,
      "cent": 1015,
      "done": 1016,
      "eye": 1017,
      "hind": 1018,
      "kne": 1019,
      "lor": 1020,
      "mon": 1021,
      "pri": 1022,
      "sil": 1023,
      "sack": 1024,
      "ts": 1025,
      "ught": 1026,
      "heard": 1027,
      "help": 1028,
      "real": 1029,
      "really": 1030,
      "asleep": 1031,
      "stand": 1032,
      "step": 1033,
      "add": 1034,
      "beli": 1035,
      "behind": 1036,
      "weather": 1037,
      "same": 1038,
      "cho": 1039,
      "forward": 1040,
      "move": 1041,
      "next": 1042,
      "dead": 1043,
      "loved": 1044,
      "suff": 1045,
      "table": 1046,
      "others": 1047,
      "pping": 1048,
      "plank": 1049,
      "comes": 1050,
      "blade": 1051,
      "home": 1052,
      "killed": 1053,
      "break": 1054,
      "birds": 1055,
      "ches": 1056,
      "swung": 1057,
      "speech": 1058,
      "badly": 1059,
      "carried": 1060,
      "fighting": 1061,
      "brother": 1062,
      "cramp": 1063,
      "huge": 1064,
      "books": 1065,
      "alongside": 1066,
      "simple": 1067,
      "serve": 1068,
      "salt": 1069,
      "experience": 1070,
      "Come": 1071,
      "fingers": 1072,
      "confid": 1073,
      "Sometimes": 1074,
      "talk": 1075,
      "friend": 1076,
      "suggest": 1077,
      "beautiful": 1078,
      "sorry": 1079,
      "DiMaggio": 1080,
      "Terrace": 1081,
      "belie": 1082,
      "An": 1083,
      "Be": 1084,
      "Can": 1085,
      "Car": 1086,
      "Hav": 1087,
      "Let": 1088,
      "St": 1089,
      "Yes": 1090,
      "ame": 1091,
      "ake": 1092,
      "cer": 1093,
      "cof": 1094,
      "dden": 1095,
      "ek": 1096,
      "find": 1097,
      "gg": 1098,
      "gain": 1099,
      "gently": 1100,
      "ious": 1101,
      "mak": 1102,
      "pan": 1103,
      "pes": 1104,
      "pound": 1105,
      "pho": 1106,
      "run": 1107,
      "sent": 1108,
      "sup": 1109,
      "treat": 1110,
      "ues": 1111,
      "wed": 1112,
      "wall": 1113,
      "ana": 1114,
      "reserve": 1115,
      "today": 1116,
      "stars": 1117,
      "arp": 1118,
      "learn": 1119,
      "roll": 1120,
      "alive": 1121,
      "west": 1122,
      "fishing": 1123,
      "short": 1124,
      "sharp": 1125,
      "fear": 1126,
      "rica": 1127,
      "necess": 1128,
      "negro": 1129,
      "dec": 1130,
      "trous": 1131,
      "cks": 1132,
      "sudden": 1133,
      "plan": 1134,
      "cted": 1135,
      "looking": 1136,
      "ushed": 1137,
      "pulling": 1138,
      "eating": 1139,
      "worked": 1140,
      "quick": 1141,
      "drew": 1142,
      "baits": 1143,
      "sailed": 1144,
      "speed": 1145,
      "jumped": 1146,
      "Africa": 1147,
      "lucky": 1148,
      "carefully": 1149,
      "drove": 1150,
      "dropped": 1151,
      "cramped": 1152,
      "pie": 1153,
      "swimming": 1154,
      "above": 1155,
      "silver": 1156,
      "Havana": 1157,
      "coffee": 1158,
      "makes": 1159,
      "trousers": 1160,
      ".\"": 1161,
      "Gulf": 1162,
      "My": 1163,
      "One": 1164,
      "To": 1165,
      "app": 1166,
      "bur": 1167,
      "bill": 1168,
      "born": 1169,
      "cat": 1170,
      "don": 1171,
      "dif": 1172,
      "diff": 1173,
      "ew": 1174,
      "fur": 1175,
      "four": 1176,
      "five": 1177,
      "flat": 1178,
      "glow": 1179,
      "green": 1180,
      "ither": 1181,
      "king": 1182,
      "kind": 1183,
      "oc": 1184,
      "os": 1185,
      "oms": 1186,
      "por": 1187,
      "pti": 1188,
      "sing": 1189,
      "sides": 1190,
      "tin": 1191,
      "hes": 1192,
      "heart": 1193,
      "inside": 1194,
      "ison": 1195,
      "those": 1196,
      "ones": 1197,
      "stre": 1198,
      "stion": 1199,
      "ences": 1200,
      "noble": 1201,
      "les": 1202,
      "ses": 1203,
      "hig": 1204,
      "vered": 1205,
      "als": 1206,
      "lives": 1207,
      "feed": 1208,
      "bot": 1209,
      "aint": 1210,
      "kept": 1211,
      "forty": 1212,
      "uring": 1213,
      "color": 1214,
      "motion": 1215,
      "ared": 1216,
      "spaper": 1217,
      "delic": 1218,
      "sometimes": 1219,
      "test": 1220,
      "newspaper": 1221,
      "lightly": 1222,
      "raw": 1223,
      "killing": 1224,
      "longer": 1225,
      "icult": 1226,
      "working": 1227,
      "breaking": 1228,
      "years": 1229,
      "ship": 1230,
      "rising": 1231,
      "creatures": 1232,
      "wings": 1233,
      "later": 1234,
      "passed": 1235,
      "vol": 1236,
      "stripes": 1237,
      "turtles": 1238,
      "eighty": 1239,
      "question": 1240,
      "bullfighting": 1241,
      "fathoms": 1242,
      "picked": 1243,
      "clouds": 1244,
      "suffering": 1245,
      "diffe": 1246,
      "difficult": 1247,
      "delicate": 1248,
      "Al": 1249,
      "As": 1250,
      "All": 1251,
      "De": 1252,
      "Each": 1253,
      "War": 1254,
      "Why": 1255,
      "ahead": 1256,
      "bing": 1257,
      "blow": 1258,
      "cu": 1259,
      "cli": 1260,
      "cry": 1261,
      "emp": 1262,
      "flo": 1263,
      "ges": 1264,
      "hore": 1265,
      "ith": 1266,
      "ler": 1267,
      "len": 1268,
      "mor": 1269,
      "mil": 1270,
      "mind": 1271,
      "making": 1272,
      "ng": 1273,
      "nu": 1274,
      "pal": 1275,
      "paper": 1276,
      "son": 1277,
      "sle": 1278,
      "tou": 1279,
      "ton": 1280,
      "tled": 1281,
      "vi": 1282,
      "val": 1283,
      "anket": 1284,
      "intell": 1285,
      "incre": 1286,
      "refle": 1287,
      "ths": 1288,
      "eri": 1289,
      "lly": 1290,
      "stu": 1291,
      "stick": 1292,
      "arms": 1293,
      "lete": 1294,
      "sel": 1295,
      "bey": 1296,
      "bean": 1297,
      "being": 1298,
      "below": 1299,
      "beside": 1300,
      "action": 1301,
      "manag": 1302,
      "weed": 1303,
      "shad": 1304,
      "shut": 1305,
      "tic": 1306,
      "lies": 1307,
      "lifted": 1308,
      "allow": 1309,
      "vering": 1310,
      "young": 1311,
      "nearly": 1312,
      "watching": 1313,
      "door": 1314,
      "tern": 1315,
      "ills": 1316,
      "tra": 1317,
      "trade": 1318,
      "trail": 1319,
      "caught": 1320,
      "stru": 1321,
      "got": 1322,
      "worth": 1323,
      "conv": 1324,
      "aked": 1325,
      "brain": 1326,
      "brown": 1327,
      "exact": 1328,
      "blanket": 1329,
      "cture": 1330,
      "anything": 1331,
      "getting": 1332,
      "lights": 1333,
      "rather": 1334,
      "ations": 1335,
      "cutting": 1336,
      "project": 1337,
      "hunting": 1338,
      "understand": 1339,
      "harbor": 1340,
      "north": 1341,
      "closed": 1342,
      "rowed": 1343,
      "settled": 1344,
      "carry": 1345,
      "wanted": 1346,
      "195": 1347,
      "lashed": 1348,
      "spoke": 1349,
      "matter": 1350,
      "comfor": 1351,
      "stayed": 1352,
      "effect": 1353,
      "solid": 1354,
      "legs": 1355,
      "quiet": 1356,
      "stepped": 1357,
      "brothers": 1358,
      "believe": 1359,
      "pounds": 1360,
      "phosp": 1361,
      "necessary": 1362,
      "bottle": 1363,
      "slept": 1364,
      "intellig": 1365,
      "manager": 1366,
      "At": 1367,
      "Bak": 1368,
      "Fish": 1369,
      "Many": 1370,
      "Make": 1371,
      "Or": 1372,
      "Stre": 1373,
      "Wor": 1374,
      "Who": 1375,
      "Yan": 1376,
      "bare": 1377,
      "cra": 1378,
      "du": 1379,
      "dder": 1380,
      "ered": 1381,
      "either": 1382,
      "fill": 1383,
      "faint": 1384,
      "gold": 1385,
      "gun": 1386,
      "gri": 1387,
      "gue": 1388,
      "gave": 1389,
      "hor": 1390,
      "ible": 1391,
      "late": 1392,
      "mit": 1393,
      "mid": 1394,
      "mal": 1395,
      "main": 1396,
      "mine": 1397,
      "maybe": 1398,
      "nat": 1399,
      "ok": 1400,
      "ph": 1401,
      "pun": 1402,
      "pushed": 1403,
      "rub": 1404,
      "sand": 1405,
      "sight": 1406,
      "sion": 1407,
      "tit": 1408,
      "ual": 1409,
      "ude": 1410,
      "umb": 1411,
      "vio": 1412,
      "ww": 1413,
      "res": 1414,
      "reve": 1415,
      "third": 1416,
      "oun": 1417,
      "ass": 1418,
      "ased": 1419,
      "edge": 1420,
      "lls": 1421,
      "itself": 1422,
      "arch": 1423,
      "enti": 1424,
      "nose": 1425,
      "order": 1426,
      "ided": 1427,
      "best": 1428,
      "wire": 1429,
      "wild": 1430,
      "acti": 1431,
      "already": 1432,
      "sho": 1433,
      "shore": 1434,
      "live": 1435,
      "fell": 1436,
      "box": 1437,
      "kees": 1438,
      "ries": 1439,
      "ents": 1440,
      "cepti": 1441,
      "ifi": 1442,
      "gear": 1443,
      "dep": 1444,
      "lot": 1445,
      "lose": 1446,
      "headed": 1447,
      "ssed": 1448,
      "poison": 1449,
      "woke": 1450,
      "cond": 1451,
      "black": 1452,
      "anyway": 1453,
      "----------": 1454,
      "rais": 1455,
      "kills": 1456,
      "ical": 1457,
      "quite": 1458,
      "turns": 1459,
      "slid": 1460,
      "trying": 1461,
      "fins": 1462,
      "dreamed": 1463,
      "--------------------------------": 1464,
      "193": 1465,
      "careful": 1466,
      "complete": 1467,
      "wake": 1468,
      "anger": 1469,
      "sheet": 1470,
      "pray": 1471,
      "holding": 1472,
      "drag": 1473,
      "drink": 1474,
      "finger": 1475,
      "strips": 1476,
      "shape": 1477,
      "easy": 1478,
      "subject": 1479,
      "alanos": 1480,
      "bitt": 1481,
      "added": 1482,
      "treatment": 1483,
      "rolled": 1484,
      "higher": 1485,
      "beyond": 1486,
      "shadow": 1487,
      "exactly": 1488,
      "phosphore": 1489,
      "Baker": 1490,
      "Stream": 1491,
      "Yankees": 1492,
      "------------------------------------------": 1493,
      "..": 1494,
      "Bro": 1495,
      "Ci": 1496,
      "Galanos": 1497,
      "HE": 1498,
      "May": 1499,
      "Mary": 1500,
      "Ped": 1501,
      "Sep": 1502,
      "Span": 1503,
      "With": 1504,
      "ber": 1505,
      "bon": 1506,
      "bac": 1507,
      "bbean": 1508,
      "cri": 1509,
      "ctor": 1510,
      "coun": 1511,
      "dent": 1512,
      "dry": 1513,
      "dign": 1514,
      "danger": 1515,
      "eag": 1516,
      "emotion": 1517,
      "fi": 1518,
      "fl": 1519,
      "food": 1520,
      "fav": 1521,
      "fail": 1522,
      "gi": 1523,
      "ged": 1524,
      "gut": 1525,
      "iz": 1526,
      "ian": 1527,
      "itor": 1528,
      "ibbean": 1529,
      "ks": 1530,
      "lone": 1531,
      "mis": 1532,
      "na": 1533,
      "ntain": 1534,
      "pay": 1535,
      "prom": 1536,
      "phy": 1537,
      "rt": 1538,
      "ran": 1539,
      "rough": 1540,
      "sad": 1541,
      "sort": 1542,
      "sign": 1543,
      "tast": 1544,
      "uso": 1545,
      "wal": 1546,
      "wise": 1547,
      "yed": 1548,
      "hear": 1549,
      "theme": 1550,
      "anim": 1551,
      "ined": 1552,
      "inte": 1553,
      "iness": 1554,
      "inally": 1555,
      "invol": 1556,
      "ision": 1557,
      "resp": 1558,
      "respe": 1559,
      "thumb": 1560,
      "ating": 1561,
      "atten": 1562,
      "top": 1563,
      "stup": 1564,
      "noise": 1565,
      "leave": 1566,
      "meant": 1567,
      "washed": 1568,
      "second": 1569,
      "beer": 1570,
      "beac": 1571,
      "beast": 1572,
      "bered": 1573,
      "belly": 1574,
      "acing": 1575,
      "acce": 1576,
      "room": 1577,
      "lyn": 1578,
      "tied": 1579,
      "tice": 1580,
      "liked": 1581,
      "board": 1582,
      "chair": 1583,
      "chang": 1584,
      "fort": 1585,
      "rice": 1586,
      "rican": 1587,
      "enty": 1588,
      "covered": 1589,
      "net": 1590,
      "neck": 1591,
      "handle": 1592,
      "watch": 1593,
      "spring": 1594,
      "dest": 1595,
      "themsel": 1596,
      "idea": 1597,
      "lost": 1598,
      "loss": 1599,
      "greatest": 1600,
      "ssible": 1601,
      "gos": 1602,
      "goes": 1603,
      "tee": 1604,
      "tember": 1605,
      "world": 1606,
      "lower": 1607,
      "uegos": 1608,
      "braced": 1609,
      "exam": 1610,
      "rence": 1611,
      "steer": 1612,
      "afra": 1613,
      "forever": 1614,
      "raph": 1615,
      "eaten": 1616,
      "darkness": 1617,
      "iction": 1618,
      "ments": 1619,
      "qual": 1620,
      "write": 1621,
      "written": 1622,
      "ishment": 1623,
      "Notice": 1624,
      "reader": 1625,
      "chewed": 1626,
      "swing": 1627,
      "swallow": 1628,
      "yourself": 1629,
      "stories": 1630,
      "size": 1631,
      "shivering": 1632,
      "resting": 1633,
      "die": 1634,
      "dip": 1635,
      "pres": 1636,
      "dreams": 1637,
      "evening": 1638,
      "rise": 1639,
      "194": 1640,
      "free": 1641,
      "wait": 1642,
      "waited": 1643,
      "rudder": 1644,
      "coiled": 1645,
      "creating": 1646,
      "hurrican": 1647,
      "mountain": 1648,
      "spots": 1649,
      "commen": 1650,
      "passa": 1651,
      "simplic": 1652,
      "buy": 1653,
      "drift": 1654,
      "driving": 1655,
      "flesh": 1656,
      "laid": 1657,
      "happy": 1658,
      "happen": 1659,
      "Afternoon": 1660,
      "effort": 1661,
      "inner": 1662,
      "inning": 1663,
      "shaped": 1664,
      "means": 1665,
      "beaten": 1666,
      "Once": 1667,
      "desper": 1668,
      "import": 1669,
      "loose": 1670,
      "hungry": 1671,
      "borrow": 1672,
      "eastward": 1673,
      "sense": 1674,
      "sweet": 1675,
      "solut": 1676,
      "lashing": 1677,
      "jerk": 1678,
      "knees": 1679,
      "sacks": 1680,
      "confidence": 1681,
      "Caribbean": 1682,
      "certain": 1683,
      "gained": 1684,
      "quickly": 1685,
      "piece": 1686,
      "burn": 1687,
      "difference": 1688,
      "Death": 1689,
      "length": 1690,
      "number": 1691,
      "touch": 1692,
      "projecting": 1693,
      "intelligent": 1694,
      "oklyn": 1695,
      "Brooklyn": 1696,
      "September": 1697,
      "Spanish": 1698,
      "bacore": 1699,
      "dignity": 1700,
      "favor": 1701,
      "attention": 1702,
      "stupid": 1703,
      "beaches": 1704,
      "themselves": 1705,
      "afraid": 1706,
      "simplicity": 1707,
      "?”": 1708,
      "Cle": 1709,
      "Every": 1710,
      "Even": 1711,
      "Hail": 1712,
      "Jo": 1713,
      "Ke": 1714,
      "Leag": 1715,
      "New": 1716,
      "Of": 1717,
      "Other": 1718,
      "Phi": 1719,
      "Ri": 1720,
      "Sis": 1721,
      "Te": 1722,
      "Two": 1723,
      "Yor": 1724,
      "ale": 1725,
      "aid": 1726,
      "bat": 1727,
      "bul": 1728,
      "bright": 1729,
      "cast": 1730,
      "cross": 1731,
      "ds": 1732,
      "dor": 1733,
      "during": 1734,
      "ev": 1735,
      "fa": 1736,
      "fit": 1737,
      "fil": 1738,
      "fought": 1739,
      "gl": 1740,
      "gu": 1741,
      "ger": 1742,
      "gent": 1743,
      "game": 1744,
      "gills": 1745,
      "hou": 1746,
      "ito": 1747,
      "ike": 1748,
      "ling": 1749,
      "lur": 1750,
      "lack": 1751,
      "lation": 1752,
      "mag": 1753,
      "mark": 1754,
      "mited": 1755,
      "mbered": 1756,
      "ner": 1757,
      "name": 1758,
      "ost": 1759,
      "pu": 1760,
      "ping": 1761,
      "pow": 1762,
      "pare": 1763,
      "ption": 1764,
      "port": 1765,
      "ror": 1766,
      "sou": 1767,
      "sat": 1768,
      "stoo": 1769,
      "sound": 1770,
      "squ": 1771,
      "sword": 1772,
      "tly": 1773,
      "um": 1774,
      "usu": 1775,
      "wr": 1776,
      "wid": 1777,
      "wra": 1778,
      "zy": 1779,
      "heel": 1780,
      "ince": 1781,
      "instead": 1782,
      "refe": 1783,
      "resu": 1784,
      "repe": 1785,
      "repor": 1786,
      "relation": 1787,
      "thus": 1788,
      "ative": 1789,
      "ask": 1790,
      "towing": 1791,
      "llent": 1792,
      "ities": 1793,
      "sty": 1794,
      "stiff": 1795,
      "aring": 1796,
      "ene": 1797,
      "ense": 1798,
      "noti": 1799,
      "lead": 1800,
      "leag": 1801,
      "admi": 1802,
      "member": 1803,
      "seas": 1804,
      "beach": 1805,
      "wice": 1806,
      "albacore": 1807,
      "week": 1808,
      "ticle": 1809,
      "ooth": 1810,
      "lict": 1811,
      "limited": 1812,
      "feat": 1813,
      "female": 1814,
      "chance": 1815,
      "vers": 1816,
      "aments": 1817,
      "doing": 1818,
      "ilt": 1819,
      "spat": 1820,
      "tran": 1821,
      "mpt": 1822,
      "cked": 1823,
      "cking": 1824,
      "los": 1825,
      "suc": 1826,
      "taut": 1827,
      "taking": 1828,
      "backbone": 1829,
      "struck": 1830,
      "timeless": 1831,
      "heads": 1832,
      "fts": 1833,
      "pector": 1834,
      "poe": 1835,
      "possible": 1836,
      "seems": 1837,
      "team": 1838,
      "person": 1839,
      "percepti": 1840,
      "woman": 1841,
      "butt": 1842,
      "conside": 1843,
      "contin": 1844,
      "contest": 1845,
      "artist": 1846,
      "ably": 1847,
      "bra": 1848,
      "bris": 1849,
      "placed": 1850,
      "didn": 1851,
      "daylight": 1852,
      "rences": 1853,
      "anyone": 1854,
      "ets": 1855,
      "vender": 1856,
      "pleas": 1857,
      "bleed": 1858,
      "righted": 1859,
      "whole": 1860,
      "ately": 1861,
      "Not": 1862,
      "yester": 1863,
      "ended": 1864,
      "endure": 1865,
      "throw": 1866,
      "speak": 1867,
      "afternoon": 1868,
      "wards": 1869,
      "six": 1870,
      "shirt": 1871,
      "smooth": 1872,
      "present": 1873,
      "tension": 1874,
      "fine": 1875,
      "showing": 1876,
      "keeps": 1877,
      "sets": 1878,
      "jumping": 1879,
      "athers": 1880,
      "risen": 1881,
      "everyone": 1882,
      "scence": 1883,
      "191": 1884,
      "discu": 1885,
      "broke": 1886,
      "broken": 1887,
      "wale": 1888,
      "remembered": 1889,
      "opened": 1890,
      "humil": 1891,
      "pride": 1892,
      "tained": 1893,
      "beginning": 1894,
      "acts": 1895,
      "materi": 1896,
      "usted": 1897,
      "clubbed": 1898,
      "clubbing": 1899,
      "drank": 1900,
      "experiences": 1901,
      "built": 1902,
      "lavender": 1903,
      "happened": 1904,
      "skillfully": 1905,
      "excellent": 1906,
      "gray": 1907,
      "mile": 1908,
      "conflict": 1909,
      "smelled": 1910,
      "slip": 1911,
      "slipped": 1912,
      "played": 1913,
      "descri": 1914,
      "easily": 1915,
      "loosen": 1916,
      "Think": 1917,
      "Thank": 1918,
      "patches": 1919,
      "sweat": 1920,
      "jerked": 1921,
      "interpre": 1922,
      "centr": 1923,
      "months": 1924,
      "choice": 1925,
      "planking": 1926,
      "confident": 1927,
      "suggestion": 1928,
      "Any": 1929,
      "Carlos": 1930,
      "Star": 1931,
      "gged": 1932,
      "decided": 1933,
      "suddenly": 1934,
      "pieces": 1935,
      "catch": 1936,
      "further": 1937,
      "furled": 1938,
      "occur": 1939,
      "Also": 1940,
      "blowing": 1941,
      "crying": 1942,
      "emphas": 1943,
      "palm": 1944,
      "view": 1945,
      "values": 1946,
      "reflection": 1947,
      "worthy": 1948,
      "convince": 1949,
      "comfortable": 1950,
      "World": 1951,
      "gunwale": 1952,
      "titude": 1953,
      "viol": 1954,
      "reveal": 1955,
      "depth": 1956,
      "subjects": 1957,
      "phosphorescence": 1958,
      "bonito": 1959,
      "given": 1960,
      "phys": 1961,
      "walked": 1962,
      "respect": 1963,
      "beasts": 1964,
      "accept": 1965,
      "teeth": 1966,
      "example": 1967,
      "swinging": 1968,
      "pressure": 1969,
      "hurricane": 1970,
      "mountains": 1971,
      "commenced": 1972,
      "passages": 1973,
      "Keep": 1974,
      "Sisler": 1975,
      "Tell": 1976,
      "York": 1977,
      "filaments": 1978,
      "house": 1979,
      "lurch": 1980,
      "power": 1981,
      "result": 1982,
      "noticed": 1983,
      "considered": 1984,
      "yesterday": 1985,
      "humility": 1986,
      "AN": 1987,
      "AR": 1988,
      "Am": 1989,
      "Bes": 1990,
      "Cu": 1991,
      "Cer": 1992,
      "ER": 1993,
      "From": 1994,
      "First": 1995,
      "Finally": 1996,
      "Fathers": 1997,
      "Gi": 1998,
      "Go": 1999,
      "Good": 2000,
      "Green": 2001,
      "Ho": 2002,
      "Have": 2003,
      "Hills": 2004,
      "IN": 2005,
      "Lu": 2006,
      "Mar": 2007,
      "Mak": 2008,
      "Our": 2009,
      "Pe": 2010,
      "Port": 2011,
      "Que": 2012,
      "Re": 2013,
      "Rest": 2014,
      "She": 2015,
      "Spain": 2016,
      "Still": 2017,
      "Ti": 2018,
      "Tom": 2019,
      "THE": 2020,
      "Vir": 2021,
      "Yet": 2022,
      "az": 2023,
      "bar": 2024,
      "bly": 2025,
      "bub": 2026,
      "bought": 2027,
      "cn": 2028,
      "cti": 2029,
      "cher": 2030,
      "city": 2031,
      "corn": 2032,
      "cket": 2033,
      "cass": 2034,
      "dou": 2035,
      "dle": 2036,
      "dam": 2037,
      "dra": 2038,
      "dried": 2039,
      "econ": 2040,
      "fo": 2041,
      "fac": 2042,
      "fun": 2043,
      "fall": 2044,
      "fir": 2045,
      "fif": 2046,
      "fig": 2047,
      "fuegos": 2048,
      "fiction": 2049,
      "ga": 2050,
      "gy": 2051,
      "gin": 2052,
      "gers": 2053,
      "gulf": 2054,
      "igh": 2055,
      "jo": 2056,
      "jor": 2057,
      "kes": 2058,
      "knot": 2059,
      "ls": 2060,
      "lade": 2061,
      "lang": 2062,
      "mer": 2063,
      "mir": 2064,
      "mone": 2065,
      "nt": 2066,
      "nour": 2067,
      "ogue": 2068,
      "pris": 2069,
      "rad": 2070,
      "ram": 2071,
      "rms": 2072,
      "sof": 2073,
      "sold": 2074,
      "sca": 2075,
      "slit": 2076,
      "tar": 2077,
      "tro": 2078,
      "tack": 2079,
      "tour": 2080,
      "tough": 2081,
      "tached": 2082,
      "ued": 2083,
      "ually": 2084,
      "uage": 2085,
      "ugue": 2086,
      "va": 2087,
      "var": 2088,
      "vill": 2089,
      "vise": 2090,
      "wart": 2091,
      "wound": 2092,
      "waking": 2093,
      "warm": 2094,
      "wished": 2095,
      "wks": 2096,
      "ythe": 2097,
      "yal": 2098,
      "yard": 2099,
      "yet": 2100,
      "收集": 2101,
      "整理": 2102,
      "萄ww": 2103,
      "葡萄ww": 2104,
      "西葡萄ww": 2105,
      "anas": 2106,
      "anic": 2107,
      "inc": 2108,
      "ins": 2109,
      "iner": 2110,
      "inal": 2111,
      "inated": 2112,
      "ism": 2113,
      "island": 2114,
      "ref": 2115,
      "reg": 2116,
      "rees": 2117,
      "ress": 2118,
      "rect": 2119,
      "return": 2120,
      "resolut": 2121,
      "thin": 2122,
      "thwart": 2123,
      "attitude": 2124,
      "ash": 2125,
      "ashed": 2126,
      "astern": 2127,
      "ery": 2128,
      "editor": 2129,
      "ingly": 2130,
      "sting": 2131,
      "stic": 2132,
      "arter": 2133,
      "article": 2134,
      "enc": 2135,
      "enfuegos": 2136,
      "noose": 2137,
      "orig": 2138,
      "orrow": 2139,
      "least": 2140,
      "lease": 2141,
      "memor": 2142,
      "wash": 2143,
      "sell": 2144,
      "sees": 2145,
      "seven": 2146,
      "search": 2147,
      "bel": 2148,
      "become": 2149,
      "These": 2150,
      "wife": 2151,
      "wiped": 2152,
      "hia": 2153,
      "hills": 2154,
      "royed": 2155,
      "fished": 2156,
      "alogue": 2157,
      "older": 2158,
      "espe": 2159,
      "wet": 2160,
      "weig": 2161,
      "shri": 2162,
      "shown": 2163,
      "shade": 2164,
      "shaking": 2165,
      "tiring": 2166,
      "lived": 2167,
      "living": 2168,
      "unity": 2169,
      "uncramp": 2170,
      "unstepped": 2171,
      "noted": 2172,
      "few": 2173,
      "aged": 2174,
      "agraph": 2175,
      "ained": 2176,
      "chop": 2177,
      "thousand": 2178,
      "force": 2179,
      "hawks": 2180,
      "rig": 2181,
      "rico": 2182,
      "rigged": 2183,
      "urance": 2184,
      "liness": 2185,
      "outside": 2186,
      "coast": 2187,
      "mother": 2188,
      "handling": 2189,
      "among": 2190,
      "arent": 2191,
      "tery": 2192,
      "termin": 2193,
      "whether": 2194,
      "def": 2195,
      "deck": 2196,
      "destru": 2197,
      "cans": 2198,
      "mps": 2199,
      "cap": 2200,
      "capt": 2201,
      "taught": 2202,
      "skin": 2203,
      "skinn": 2204,
      "pect": 2205,
      "post": 2206,
      "pose": 2207,
      "someone": 2208,
      "teen": 2209,
      "tered": 2210,
      "tempt": 2211,
      "butche": 2212,
      "cons": 2213,
      "contri": 2214,
      "concentr": 2215,
      "uel": 2216,
      "hasn": 2217,
      "plac": 2218,
      "plenty": 2219,
      "expl": 2220,
      "overboard": 2221,
      "shouldn": 2222,
      "bler": 2223,
      "steal": 2224,
      "steering": 2225,
      "steered": 2226,
      "myster": 2227,
      "known": 2228,
      "knowing": 2229,
      "sunset": 2230,
      "ants": 2231,
      "hot": 2232,
      "hoped": 2233,
      "hoist": 2234,
      "major": 2235,
      "anymore": 2236,
      "gets": 2237,
      "claw": 2238,
      "veness": 2239,
      "thinking": 2240,
      "ics": 2241,
      "quently": 2242,
      "quarter": 2243,
      "thank": 2244,
      "whose": 2245,
      "brea": 2246,
      "aving": 2247,
      "dressed": 2248,
      "lphia": 2249,
      "prov": 2250,
      "proper": 2251,
      "produ": 2252,
      "bettor": 2253,
      "Nothing": 2254,
      "Nobel": 2255,
      "putting": 2256,
      "year": 2257,
      "readers": 2258,
      "ends": 2259,
      "endurance": 2260,
      "cheer": 2261,
      "chest": 2262,
      "chewing": 2263,
      "cheek": 2264,
      "hunter": 2265,
      "sailing": 2266,
      "cruel": 2267,
      "spear": 2268,
      "icked": 2269,
      "itecture": 2270,
      "stopped": 2271,
      "shifted": 2272,
      "dies": 2273,
      "dimen": 2274,
      "dialogue": 2275,
      "prepar": 2276,
      "prepare": 2277,
      "however": 2278,
      "airplan": 2279,
      "finally": 2280,
      "shows": 2281,
      "dreaming": 2282,
      "clock": 2283,
      "rowing": 2284,
      "sleeping": 2285,
      "jumps": 2286,
      "carcass": 2287,
      "harder": 2288,
      "hardly": 2289,
      "scythe": 2290,
      "brings": 2291,
      "bringing": 2292,
      "frequently": 2293,
      "compar": 2294,
      "company": 2295,
      "clearly": 2296,
      "broad": 2297,
      "baited": 2298,
      "cramps": 2299,
      "rum": 2300,
      "rush": 2301,
      "ruined": 2302,
      "sheath": 2303,
      "ists": 2304,
      "armed": 2305,
      "create": 2306,
      "creative": 2307,
      "humi": 2308,
      "appe": 2309,
      "courage": 2310,
      "match": 2311,
      "leaning": 2312,
      "market": 2313,
      "pivo": 2314,
      "picture": 2315,
      "pass": 2316,
      "swir": 2317,
      "llowed": 2318,
      "drifted": 2319,
      "ledge": 2320,
      "sardine": 2321,
      "truth": 2322,
      "grace": 2323,
      "beauty": 2324,
      "shaft": 2325,
      "needed": 2326,
      "meaning": 2327,
      "player": 2328,
      "treacherous": 2329,
      "cient": 2330,
      "cially": 2331,
      "trick": 2332,
      "tricks": 2333,
      "novels": 2334,
      "hunger": 2335,
      "schools": 2336,
      "Though": 2337,
      "else": 2338,
      "patched": 2339,
      "paragraph": 2340,
      "fathom": 2341,
      "minut": 2342,
      "medi": 2343,
      "situ": 2344,
      "sitting": 2345,
      "words": 2346,
      "slanting": 2347,
      "prize": 2348,
      "adds": 2349,
      "movement": 2350,
      "plankton": 2351,
      "friends": 2352,
      "suggested": 2353,
      "Ancient": 2354,
      "Because": 2355,
      "gaining": 2356,
      "iously": 2357,
      "panic": 2358,
      "supp": 2359,
      "walls": 2360,
      "westworld": 2361,
      "apparent": 2362,
      "occ": 2363,
      "tiny": 2364,
      "stream": 2365,
      "newspapers": 2366,
      "different": 2367,
      "delicately": 2368,
      "climb": 2369,
      "clicking": 2370,
      "floated": 2371,
      "tonight": 2372,
      "increased": 2373,
      "reflected": 2374,
      "study": 2375,
      "stuff": 2376,
      "ticul": 2377,
      "travel": 2378,
      "understanding": 2379,
      "northwest": 2380,
      "quietly": 2381,
      "crazy": 2382,
      "crafts": 2383,
      "fillets": 2384,
      "golden": 2385,
      "gripped": 2386,
      "horses": 2387,
      "middle": 2388,
      "mala": 2389,
      "punishment": 2390,
      "rubbed": 2391,
      "architecture": 2392,
      "activ": 2393,
      "shovel": 2394,
      "raised": 2395,
      "raising": 2396,
      "prayers": 2397,
      "Cienfuegos": 2398,
      "Marys": 2399,
      "Pedrico": 2400,
      "dentuso": 2401,
      "ized": 2402,
      "lonely": 2403,
      "taste": 2404,
      "themes": 2405,
      "animals": 2406,
      "respond": 2407,
      "changed": 2408,
      "destroyed": 2409,
      "important": 2410,
      "favorite": 2411,
      "League": 2412,
      "Philade": 2413,
      "dorsal": 2414,
      "glare": 2415,
      "gentle": 2416,
      "magaz": 2417,
      "marks": 2418,
      "publ": 2419,
      "south": 2420,
      "stood": 2421,
      "usually": 2422,
      "wrong": 2423,
      "wrapped": 2424,
      "reporter": 2425,
      "style": 2426,
      "admires": 2427,
      "pectoral": 2428,
      "poetry": 2429,
      "continued": 2430,
      "brisa": 2431,
      "pleasant": 2432,
      "smoothly": 2433,
      "discuss": 2434,
      "material": 2435,
      "description": 2436,
      "occurrences": 2437,
      "emphasis": 2438,
      "violent": 2439,
      "physical": 2440,
      "Besides": 2441,
      "Cuba": 2442,
      "Certain": 2443,
      "Giants": 2444,
      "Luque": 2445,
      "Mariner": 2446,
      "Mako": 2447,
      "Portugue": 2448,
      "Remember": 2449,
      "Tomorrow": 2450,
      "Virgin": 2451,
      "bubble": 2452,
      "cn收集": 2453,
      "corner": 2454,
      "firm": 2455,
      "language": 2456,
      "mirror": 2457,
      "money": 2458,
      "prisms": 2459,
      "radio": 2460,
      "softly": 2461,
      "village": 2462,
      "西葡萄www": 2463,
      "resolution": 2464,
      "memories": 2465,
      "especially": 2466,
      "weighed": 2467,
      "skinned": 2468,
      "butchered": 2469,
      "contribut": 2470,
      "bettors": 2471,
      "airplane": 2472,
      "humili": 2473,
      "craftsman": 2474,
      "Philadelphia": 2475,
      "magazine": 2476,
      "Portuguese": 2477,
      "cn收集整理": 2478,
      "00": 2479,
      "13": 2480,
      "18": 2481,
      "29": 2482,
      "72": 2483,
      "AY": 2484,
      "Ay": 2485,
      "Are": 2486,
      "Arms": 2487,
      "Bed": 2488,
      "Bad": 2489,
      "Back": 2490,
      "Big": 2491,
      "Bet": 2492,
      "Bey": 2493,
      "Bless": 2494,
      "Bring": 2495,
      "Bost": 2496,
      "Ch": 2497,
      "Cas": 2498,
      "Chi": 2499,
      "Could": 2500,
      "Cinc": 2501,
      "Dr": 2502,
      "Du": 2503,
      "Des": 2504,
      "Dent": 2505,
      "Det": 2506,
      "Dick": 2507,
      "Dod": 2508,
      "During": 2509,
      "El": 2510,
      "Eu": 2511,
      "Fare": 2512,
      "GW": 2513,
      "Gu": 2514,
      "Gon": 2515,
      "Get": 2516,
      "Graw": 2517,
      "Hold": 2518,
      "II": 2519,
      "Is": 2520,
      "Ind": 2521,
      "Isl": 2522,
      "Jes": 2523,
      "Lou": 2524,
      "Last": 2525,
      "Like": 2526,
      "Mc": 2527,
      "Mine": 2528,
      "Mike": 2529,
      "Most": 2530,
      "MIN": 2531,
      "Nor": 2532,
      "Never": 2533,
      "Oft": 2534,
      "Pull": 2535,
      "Please": 2536,
      "Sh": 2537,
      "Sar": 2538,
      "Sun": 2539,
      "Sleep": 2540,
      "Saint": 2541,
      "TO": 2542,
      "Tig": 2543,
      "Tho": 2544,
      "Twice": 2545,
      "Un": 2546,
      "Very": 2547,
      "aven": 2548,
      "bv": 2549,
      "ban": 2550,
      "bas": 2551,
      "bal": 2552,
      "boo": 2553,
      "bus": 2554,
      "bang": 2555,
      "balan": 2556,
      "bones": 2557,
      "blot": 2558,
      "bably": 2559,
      "cook": 2560,
      "cus": 2561,
      "cago": 2562,
      "cifi": 2563,
      "cision": 2564,
      "dg": 2565,
      "ded": 2566,
      "dut": 2567,
      "draw": 2568,
      "eld": 2569,
      "etor": 2570,
      "earn": 2571,
      "eleg": 2572,
      "equal": 2573,
      "fas": 2574,
      "fed": 2575,
      "fold": 2576,
      "fam": 2577,
      "flow": 2578,
      "flight": 2579,
      "fried": 2580,
      "fair": 2581,
      "ffect": 2582,
      "facts": 2583,
      "gas": 2584,
      "gar": 2585,
      "glas": 2586,
      "galan": 2587,
      "graph": 2588,
      "hn": 2589,
      "hide": 2590,
      "hang": 2591,
      "iv": 2592,
      "ild": 2593,
      "ior": 2594,
      "ize": 2595,
      "jam": 2596,
      "juegos": 2597,
      "kicked": 2598,
      "lan": 2599,
      "lam": 2600,
      "lus": 2601,
      "lung": 2602,
      "mut": 2603,
      "mbo": 2604,
      "mood": 2605,
      "ny": 2606,
      "ned": 2607,
      "ning": 2608,
      "nail": 2609,
      "nons": 2610,
      "naked": 2611,
      "oa": 2612,
      "olin": 2613,
      "oak": 2614,
      "omy": 2615,
      "pou": 2616,
      "phi": 2617,
      "pack": 2618,
      "pill": 2619,
      "past": 2620,
      "pig": 2621,
      "pper": 2622,
      "pity": 2623,
      "pub": 2624,
      "pair": 2625,
      "pale": 2626,
      "paid": 2627,
      "penc": 2628,
      "rid": 2629,
      "ray": 2630,
      "rup": 2631,
      "rus": 2632,
      "round": 2633,
      "rance": 2634,
      "rhy": 2635,
      "sy": 2636,
      "snow": 2637,
      "sill": 2638,
      "sink": 2639,
      "sank": 2640,
      "sions": 2641,
      "snat": 2642,
      "sna": 2643,
      "tes": 2644,
      "tide": 2645,
      "tation": 2646,
      "twent": 2647,
      "tact": 2648,
      "twice": 2649,
      "ua": 2650,
      "ud": 2651,
      "ump": 2652,
      "uous": 2653,
      "uished": 2654,
      "ucifi": 2655,
      "vis": 2656,
      "vil": 2657,
      "vast": 2658,
      "wak": 2659,
      "winter": 2660,
      "ys": 2661,
      "zed": 2662,
      "zen": 2663,
      "zale": 2664,
      "”:": 2665,
      "heal": 2666,
      "height": 2667,
      "theast": 2668,
      "ano": 2669,
      "anion": 2670,
      "anab": 2671,
      "ancho": 2672,
      "inf": 2673,
      "ining": 2674,
      "inar": 2675,
      "inch": 2676,
      "inci": 2677,
      "ands": 2678,
      "ised": 2679,
      "ises": 2680,
      "issu": 2681,
      "reco": 2682,
      "reach": 2683,
      "recur": 2684,
      "removed": 2685,
      "rela": 2686,
      "rection": 2687,
      "record": 2688,
      "remed": 2689,
      "replaced": 2690,
      "thm": 2691,
      "thir": 2692,
      "thigh": 2693,
      "ati": 2694,
      "ats": 2695,
      "ates": 2696,
      "attr": 2697,
      "attained": 2698,
      "attached": 2699,
      "asing": 2700,
      "asion": 2701,
      "asking": 2702,
      "asuring": 2703,
      "aspect": 2704,
      "ergy": 2705,
      "ony": 2706,
      "oned": 2707,
      "tore": 2708,
      "tory": 2709,
      "tomor": 2710,
      "tograph": 2711,
      "often": 2712,
      "lled": 2713,
      "llars": 2714,
      "ition": 2715,
      "star": 2716,
      "stone": 2717,
      "stab": 2718,
      "state": 2719,
      "arr": 2720,
      "arily": 2721,
      "eness": 2722,
      "enced": 2723,
      "energy": 2724,
      "nobler": 2725,
      "ord": 2726,
      "ory": 2727,
      "lect": 2728,
      "level": 2729,
      "lepr": 2730,
      "leap": 2731,
      "leashed": 2732,
      "ading": 2733,
      "hissing": 2734,
      "mech": 2735,
      "meet": 2736,
      "measuring": 2737,
      "ider": 2738,
      "ident": 2739,
      "seed": 2740,
      "sever": 2741,
      "select": 2742,
      "becomes": 2743,
      "acc": 2744,
      "accord": 2745,
      "accoun": 2746,
      "acoa": 2747,
      "manent": 2748,
      "manner": 2749,
      "rob": 2750,
      "rot": 2751,
      "roit": 2752,
      "rock": 2753,
      "rocks": 2754,
      "rodu": 2755,
      "rocher": 2756,
      "royal": 2757,
      "also": 2758,
      "alist": 2759,
      "alarm": 2760,
      "weap": 2761,
      "weaving": 2762,
      "save": 2763,
      "safe": 2764,
      "shy": 2765,
      "shor": 2766,
      "share": 2767,
      "shook": 2768,
      "shank": 2769,
      "withdrew": 2770,
      "timid": 2771,
      "---": 2772,
      "lime": 2773,
      "livers": 2774,
      "unclear": 2775,
      "uncramped": 2776,
      "unleashed": 2777,
      "feated": 2778,
      "fecti": 2779,
      "bode": 2780,
      "ages": 2781,
      "agic": 2782,
      "agua": 2783,
      "agony": 2784,
      "chin": 2785,
      "change": 2786,
      "forms": 2787,
      "forced": 2788,
      "soaked": 2789,
      "irt": 2790,
      "irides": 2791,
      "haul": 2792,
      "hausted": 2793,
      "urinated": 2794,
      "ental": 2795,
      "cost": 2796,
      "colo": 2797,
      "cope": 2798,
      "comb": 2799,
      "nected": 2800,
      "neither": 2801,
      "cember": 2802,
      "thoughts": 2803,
      "thern": 2804,
      "handi": 2805,
      "handsome": 2806,
      "amation": 2807,
      "docks": 2808,
      "dozen": 2809,
      "dollars": 2810,
      "ils": 2811,
      "iled": 2812,
      "ilated": 2813,
      "mus": 2814,
      "mulus": 2815,
      "gel": 2816,
      "illus": 2817,
      "why": 2818,
      "spare": 2819,
      "sport": 2820,
      "-----": 2821,
      "detail": 2822,
      "defeat": 2823,
      "devise": 2824,
      "defeated": 2825,
      "upper": 2826,
      "cant": 2827,
      "trave": 2828,
      "tragic": 2829,
      "caut": 2830,
      "sum": 2831,
      "suit": 2832,
      "tably": 2833,
      "backs": 2834,
      "backed": 2835,
      "backing": 2836,
      "ully": 2837,
      "straw": 2838,
      "greater": 2839,
      "ssion": 2840,
      "peak": 2841,
      "pol": 2842,
      "pot": 2843,
      "poor": 2844,
      "poet": 2845,
      "pocket": 2846,
      "seem": 2847,
      "seemed": 2848,
      "teach": 2849,
      "worn": 2850,
      "worse": 2851,
      "worry": 2852,
      "worried": 2853,
      "permanent": 2854,
      "women": 2855,
      "contain": 2856,
      "concer": 2857,
      "constru": 2858,
      "convers": 2859,
      "connected": 2860,
      "absolut": 2861,
      "ablan": 2862,
      "whatever": 2863,
      "bracing": 2864,
      "exc": 2865,
      "ext": 2866,
      "excl": 2867,
      "exhausted": 2868,
      "cleared": 2869,
      "bled": 2870,
      "blad": 2871,
      "turb": 2872,
      "looks": 2873,
      "stew": 2874,
      "myself": 2875,
      "mystic": 2876,
      "juic": 2877,
      "knowledge": 2878,
      "sung": 2879,
      "sunrise": 2880,
      "maje": 2881,
      "etching": 2882,
      "lighter": 2883,
      "lightness": 2884,
      "forehead": 2885,
      "forearms": 2886,
      "forefinger": 2887,
      "hate": 2888,
      "hated": 2889,
      "rapi": 2890,
      "raise": 2891,
      ".)(": 2892,
      "longed": 2893,
      "essenti": 2894,
      "mbers": 2895,
      "thinks": 2896,
      "ritual": 2897,
      "blems": 2898,
      "tinguished": 2899,
      "Inside": 2900,
      "cuts": 2901,
      "whom": 2902,
      "biggest": 2903,
      "bigger": 2904,
      "prose": 2905,
      "prove": 2906,
      "prote": 2907,
      "proving": 2908,
      "propri": 2909,
      "probably": 2910,
      "problems": 2911,
      "checked": 2912,
      "hooks": 2913,
      "thrust": 2914,
      "undercurrent": 2915,
      "crushed": 2916,
      "crucifi": 2917,
      "slowed": 2918,
      "speci": 2919,
      "bows": 2920,
      "cirrus": 2921,
      "itely": 2922,
      "harsh": 2923,
      "stop": 2924,
      "stor": 2925,
      "store": 2926,
      "shiver": 2927,
      "shift": 2928,
      "ships": 2929,
      "shipped": 2930,
      "shivered": 2931,
      "inted": 2932,
      "introdu": 2933,
      "normal": 2934,
      "northeast": 2935,
      "rests": 2936,
      "dipping": 2937,
      "direction": 2938,
      "presu": 2939,
      "precision": 2940,
      "pression": 2941,
      "tened": 2942,
      "hitting": 2943,
      "sla": 2944,
      "slave": 2945,
      "tails": 2946,
      "closer": 2947,
      "closing": 2948,
      "trem": 2949,
      "starting": 2950,
      "setting": 2951,
      "carap": 2952,
      "rist": 2953,
      "rises": 2954,
      "Where": 2955,
      "scoo": 2956,
      "scars": 2957,
      "veland": 2958,
      "points": 2959,
      "pointed": 2960,
      "pointment": 2961,
      "coral": 2962,
      "correspond": 2963,
      "disg": 2964,
      "disap": 2965,
      "disillus": 2966,
      "disturb": 2967,
      "distinguished": 2968,
      "ineffect": 2969,
      "compl": 2970,
      "compared": 2971,
      "companion": 2972,
      "drop": 2973,
      "painful": 2974,
      "deepest": 2975,
      "opening": 2976,
      "odds": 2977,
      "proud": 2978,
      "practi": 2979,
      "princi": 2980,
      "begin": 2981,
      "actual": 2982,
      "spot": 2983,
      "spoon": 2984,
      "apart": 2985,
      "matches": 2986,
      "comments": 2987,
      "tells": 2988,
      "feelings": 2989,
      "says": 2990,
      "type": 2991,
      "circles": 2992,
      "simply": 2993,
      "calls": 2994,
      "jelly": 2995,
      "parts": 2996,
      "salted": 2997,
      "vomit": 2998,
      "threw": 2999,
      "experienced": 3000,
      "straightened": 3001,
      "Cobre": 3002,
      "Manolin": 3003,
      "bump": 3004,
      "build": 3005,
      "lapping": 3006,
      "happily": 3007,
      "surely": 3008,
      "effecti": 3009,
      "ground": 3010,
      "miles": 3011,
      "innati": 3012,
      "smelling": 3013,
      "footed": 3014,
      "slice": 3015,
      "playing": 3016,
      "circled": 3017,
      "Dolphin": 3018,
      "imag": 3019,
      "impress": 3020,
      "loop": 3021,
      "talked": 3022,
      "lovely": 3023,
      "wonderful": 3024,
      "\"(“": 3025,
      "patch": 3026,
      "pattern": 3027,
      "parti": 3028,
      "spurs": 3029,
      "sugar": 3030,
      "cleaned": 3031,
      "cleanly": 3032,
      "beautifully": 3033,
      "jerking": 3034,
      "tightened": 3035,
      "moments": 3036,
      "slanted": 3037,
      "knee": 3038,
      "knelt": 3039,
      "month": 3040,
      "primit": 3041,
      "chopped": 3042,
      "movements": 3043,
      "suffer": 3044,
      "planks": 3045,
      "cramping": 3046,
      "simplest": 3047,
      "friendly": 3048,
      "Bell": 3049,
      "Stay": 3050,
      "finds": 3051,
      "finding": 3052,
      "photograph": 3053,
      "runs": 3054,
      "suppose": 3055,
      "treated": 3056,
      "wedge": 3057,
      "rolling": 3058,
      "sharply": 3059,
      "fearless": 3060,
      "necessarily": 3061,
      "decides": 3062,
      "decision": 3063,
      "plans": 3064,
      "Tolls": 3065,
      "appro": 3066,
      "flattened": 3067,
      "porpo": 3068,
      "stret": 3069,
      "feeding": 3070,
      "motionless": 3071,
      "December": 3072,
      "cumulus": 3073,
      "empty": 3074,
      "floor": 3075,
      "milk": 3076,
      "palms": 3077,
      "papers": 3078,
      "touching": 3079,
      "value": 3080,
      "increase": 3081,
      "increasing": 3082,
      "erican": 3083,
      "sticks": 3084,
      "beans": 3085,
      "traps": 3086,
      "traitor": 3087,
      "trailing": 3088,
      "strugg": 3089,
      "conviction": 3090,
      "projected": 3091,
      "carrying": 3092,
      "1951": 3093,
      "1952": 3094,
      "1954": 3095,
      "comfortably": 3096,
      "solidly": 3097,
      "bottles": 3098,
      "Whom": 3099,
      "barefooted": 3100,
      "filled": 3101,
      "maintained": 3102,
      "nature": 3103,
      "punched": 3104,
      "rubber": 3105,
      "reveals": 3106,
      "entire": 3107,
      "wildly": 3108,
      "ificant": 3109,
      "depths": 3110,
      "lottery": 3111,
      "poisoning": 3112,
      "1936": 3113,
      "completely": 3114,
      "phosphorescent": 3115,
      "...\"": 3116,
      "Civil": 3117,
      "HEMIN": 3118,
      "Pedro": 3119,
      "counsel": 3120,
      "dangerous": 3121,
      "fire": 3122,
      "flour": 3123,
      "failure": 3124,
      "gutted": 3125,
      "ians": 3126,
      "loneliness": 3127,
      "nause": 3128,
      "promise": 3129,
      "promised": 3130,
      "significant": 3131,
      "animal": 3132,
      "interests": 3133,
      "involve": 3134,
      "involved": 3135,
      "respon": 3136,
      "changes": 3137,
      "quality": 3138,
      "swallowing": 3139,
      "1940": 3140,
      "1948": 3141,
      "waiter": 3142,
      "waiting": 3143,
      "drifting": 3144,
      "desperate": 3145,
      "desperately": 3146,
      "importance": 3147,
      "burned": 3148,
      "Clear": 3149,
      "Cleveland": 3150,
      "Everything": 3151,
      "John": 3152,
      "Others": 3153,
      "Rigel": 3154,
      "fault": 3155,
      "faith": 3156,
      "guano": 3157,
      "names": 3158,
      "squid": 3159,
      "square": 3160,
      "widen": 3161,
      "referees": 3162,
      "repeated": 3163,
      "repetit": 3164,
      "relationship": 3165,
      "relationships": 3166,
      "enemy": 3167,
      "leader": 3168,
      "league": 3169,
      "leagues": 3170,
      "weeks": 3171,
      "transl": 3172,
      "success": 3173,
      "personal": 3174,
      "perceptiveness": 3175,
      "contests": 3176,
      "bleeding": 3177,
      "presented": 3178,
      "interpretation": 3179,
      "revealed": 3180,
      "AND": 3181,
      "American": 3182,
      "People": 3183,
      "Time": 3184,
      "double": 3185,
      "damental": 3186,
      "drawing": 3187,
      "economy": 3188,
      "followed": 3189,
      "factory": 3190,
      "fundamental": 3191,
      "fifteen": 3192,
      "figure": 3193,
      "joined": 3194,
      "nourishment": 3195,
      "scaven": 3196,
      "trop": 3197,
      "tourists": 3198,
      "various": 3199,
      "anically": 3200,
      "rectly": 3201,
      "articles": 3202,
      "original": 3203,
      "shrimps": 3204,
      "terminal": 3205,
      "destruction": 3206,
      "capture": 3207,
      "posture": 3208,
      "concentration": 3209,
      "places": 3210,
      "explain": 3211,
      "mysteries": 3212,
      "hoisted": 3213,
      "claws": 3214,
      "breathe": 3215,
      "cheerful": 3216,
      "dimension": 3217,
      "comparison": 3218,
      "appear": 3219,
      "pivoted": 3220,
      "swirl": 3221,
      "graceful": 3222,
      "minute": 3223,
      "situation": 3224,
      "supply": 3225,
      "occasion": 3226,
      "ticulate": 3227,
      "activities": 3228,
      "published": 3229,
      "southwest": 3230,
      "discussions": 3231,
      "mirrors": 3232,
      "craftsmanship": 3233,
      "189": 3234,
      "Beyond": 3235,
      "Blessed": 3236,
      "Boston": 3237,
      "Christ": 3238,
      "Casablan": 3239,
      "Chicago": 3240,
      "Cincinnati": 3241,
      "Durocher": 3242,
      "Dentuso": 3243,
      "Detroit": 3244,
      "Dodgers": 3245,
      "Europe": 3246,
      "Farewell": 3247,
      "GWAY": 3248,
      "Guanab": 3249,
      "Gonzale": 3250,
      "Indians": 3251,
      "Islands": 3252,
      "Jesus": 3253,
      "Louis": 3254,
      "McGraw": 3255,
      "Often": 3256,
      "Should": 3257,
      "Sargas": 3258,
      "Those": 3259,
      "bananas": 3260,
      "basket": 3261,
      "balance": 3262,
      "boom": 3263,
      "business": 3264,
      "banging": 3265,
      "balanced": 3266,
      "blotches": 3267,
      "cushi": 3268,
      "duty": 3269,
      "glass": 3270,
      "galano": 3271,
      "jammed": 3272,
      "lamps": 3273,
      "mutilated": 3274,
      "mbols": 3275,
      "nonsense": 3276,
      "poured": 3277,
      "pillow": 3278,
      "public": 3279,
      "pencil": 3280,
      "rupt": 3281,
      "rhythm": 3282,
      "symbols": 3283,
      "silly": 3284,
      "snapped": 3285,
      "twenty": 3286,
      "waken": 3287,
      "anchored": 3288,
      "inarticulate": 3289,
      "relax": 3290,
      "remedy": 3291,
      "thirty": 3292,
      "aspects": 3293,
      "tomorrow": 3294,
      "leprous": 3295,
      "mechanically": 3296,
      "weapon": 3297,
      "safety": 3298,
      "bodega": 3299,
      "iridescent": 3300,
      "colored": 3301,
      "sports": 3302,
      "container": 3303,
      "conversation": 3304,
      "absolute": 3305,
      "exclamation": 3306,
      "mysticism": 3307,
      "rapier": 3308,
      "proprietor": 3309,
      "carapaced": 3310,
      "correspondent": 3311,
      "disappointment": 3312,
      "disillusion": 3313,
      "jellyfish": 3314,
      "effective": 3315,
      "primitive": 3316,
      "HEMINGWAY": 3317,
      "occasional": 3318,
      "Casablanca": 3319,
      "Guanabacoa": 3320,
      "Gonzalez": 3321,
      "Sargasso": 3322,
      "\"'": 3323,
      "\"..": 3324,
      "''": 3325,
      ")(": 3326,
      ",.\"": 3327,
      ".'": 3328,
      ".\"(": 3329,
      "14": 3330,
      "15": 3331,
      "21": 3332,
      "22": 3333,
      "53": 3334,
      "60": 3335,
      "65": 3336,
      "70": 3337,
      "800": 3338,
      "?(": 3339,
      "?)": 3340,
      "AM": 3341,
      "AX": 3342,
      "Ado": 3343,
      "Age": 3344,
      "Act": 3345,
      "Aren": 3346,
      "Amen": 3347,
      "Apri": 3348,
      "Art": 3349,
      "Across": 3350,
      "Agu": 3351,
      "BE": 3352,
      "BN": 3353,
      "Bl": 3354,
      "Bo": 3355,
      "By": 3356,
      "Base": 3357,
      "Black": 3358,
      "CH": 3359,
      "CR": 3360,
      "Che": 3361,
      "Cat": 3362,
      "Cha": 3363,
      "Cam": 3364,
      "Care": 3365,
      "Card": 3366,
      "Cab": 3367,
      "City": 3368,
      "Clean": 3369,
      "Cons": 3370,
      "Cram": 3371,
      "CAM": 3372,
      "Da": 3373,
      "Did": 3374,
      "Dam": 3375,
      "Dim": 3376,
      "EA": 3377,
      "ES": 3378,
      "Er": 3379,
      "Es": 3380,
      "Eight": 3381,
      "Eshark": 3382,
      "Far": 3383,
      "Fight": 3384,
      "Five": 3385,
      "Flor": 3386,
      "France": 3387,
      "Ge": 3388,
      "Gre": 3389,
      "Ger": 3390,
      "Grace": 3391,
      "Gran": 3392,
      "Hat": 3393,
      "Has": 3394,
      "Her": 3395,
      "Hard": 3396,
      "Half": 3397,
      "Haven": 3398,
      "IE": 3399,
      "Im": 3400,
      "Ill": 3401,
      "Imag": 3402,
      "IBN": 3403,
      "Jour": 3404,
      "Jame": 3405,
      "Kan": 3406,
      "KIN": 3407,
      "LD": 3408,
      "LL": 3409,
      "Li": 3410,
      "Lo": 3411,
      "Land": 3412,
      "Light": 3413,
      "Look": 3414,
      "Lig": 3415,
      "Luck": 3416,
      "Life": 3417,
      "Lashed": 3418,
      "Lord": 3419,
      "LIE": 3420,
      "Mi": 3421,
      "Mon": 3422,
      "Mother": 3423,
      "Mart": 3424,
      "Mic": 3425,
      "Mos": 3426,
      "MAN": 3427,
      "MAR": 3428,
      "MAX": 3429,
      "Ne": 3430,
      "Nat": 3431,
      "None": 3432,
      "Nation": 3433,
      "Neither": 3434,
      "NES": 3435,
      "Oc": 3436,
      "Ori": 3437,
      "Oak": 3438,
      "Obv": 3439,
      "OLD": 3440,
      "Pl": 3441,
      "Pr": 3442,
      "Par": 3443,
      "Pro": 3444,
      "Park": 3445,
      "Pab": 3446,
      "Prose": 3447,
      "PER": 3448,
      "PBE": 3449,
      "Ro": 3450,
      "Red": 3451,
      "Rig": 3452,
      "Rises": 3453,
      "Sl": 3454,
      "Shi": 3455,
      "Sac": 3456,
      "Sent": 3457,
      "Ste": 3458,
      "Slow": 3459,
      "Sure": 3460,
      "Sail": 3461,
      "Supper": 3462,
      "SCR": 3463,
      "SEA": 3464,
      "Tit": 3465,
      "Tor": 3466,
      "Too": 3467,
      "Tru": 3468,
      "Tech": 3469,
      "Take": 3470,
      "Trees": 3471,
      "Up": 3472,
      "Usu": 3473,
      "Und": 3474,
      "Wh": 3475,
      "Wi": 3476,
      "Won": 3477,
      "Whi": 3478,
      "Will": 3479,
      "Writ": 3480,
      "Wake": 3481,
      "Your": 3482,
      "ao": 3483,
      "au": 3484,
      "aple": 3485,
      "aped": 3486,
      "award": 3487,
      "aim": 3488,
      "awash": 3489,
      "band": 3490,
      "ben": 3491,
      "bir": 3492,
      "bri": 3493,
      "bent": 3494,
      "blin": 3495,
      "bil": 3496,
      "bight": 3497,
      "blo": 3498,
      "bound": 3499,
      "bind": 3500,
      "bate": 3501,
      "bend": 3502,
      "bite": 3503,
      "bank": 3504,
      "bio": 3505,
      "bage": 3506,
      "bser": 3507,
      "bted": 3508,
      "based": 3509,
      "bene": 3510,
      "bbled": 3511,
      "cy": 3512,
      "cing": 3513,
      "cad": 3514,
      "chi": 3515,
      "cow": 3516,
      "cup": 3517,
      "cong": 3518,
      "cig": 3519,
      "cred": 3520,
      "crit": 3521,
      "cation": 3522,
      "cure": 3523,
      "cult": 3524,
      "cinated": 3525,
      "dull": 3526,
      "dig": 3527,
      "dart": 3528,
      "due": 3529,
      "dive": 3530,
      "dul": 3531,
      "dous": 3532,
      "duck": 3533,
      "dru": 3534,
      "dged": 3535,
      "drum": 3536,
      "dded": 3537,
      "dirt": 3538,
      "eg": 3539,
      "ear": 3540,
      "een": 3541,
      "ele": 3542,
      "eel": 3543,
      "equi": 3544,
      "egg": 3545,
      "evol": 3546,
      "emer": 3547,
      "erect": 3548,
      "fr": 3549,
      "fer": 3550,
      "fad": 3551,
      "fut": 3552,
      "fal": 3553,
      "fli": 3554,
      "flin": 3555,
      "fide": 3556,
      "fra": 3557,
      "fic": 3558,
      "fright": 3559,
      "flas": 3560,
      "fru": 3561,
      "fact": 3562,
      "fulf": 3563,
      "fond": 3564,
      "faced": 3565,
      "foc": 3566,
      "facing": 3567,
      "flapping": 3568,
      "gn": 3569,
      "gs": 3570,
      "gen": 3571,
      "gly": 3572,
      "gli": 3573,
      "gall": 3574,
      "gam": 3575,
      "gill": 3576,
      "gher": 3577,
      "gthen": 3578,
      "gra": 3579,
      "gate": 3580,
      "grow": 3581,
      "gru": 3582,
      "glor": 3583,
      "gious": 3584,
      "gues": 3585,
      "galanos": 3586,
      "gress": 3587,
      "genc": 3588,
      "gaged": 3589,
      "gstore": 3590,
      "hull": 3591,
      "hits": 3592,
      "hint": 3593,
      "horn": 3594,
      "hides": 3595,
      "ias": 3596,
      "ier": 3597,
      "ial": 3598,
      "ient": 3599,
      "ico": 3600,
      "imu": 3601,
      "iet": 3602,
      "ique": 3603,
      "ienti": 3604,
      "ients": 3605,
      "jac": 3606,
      "jun": 3607,
      "jack": 3608,
      "jour": 3609,
      "jagg": 3610,
      "jok": 3611,
      "kin": 3612,
      "ker": 3613,
      "lis": 3614,
      "lon": 3615,
      "lid": 3616,
      "lun": 3617,
      "loud": 3618,
      "lity": 3619,
      "lsto": 3620,
      "lance": 3621,
      "lap": 3622,
      "lude": 3623,
      "lists": 3624,
      "mn": 3625,
      "mas": 3626,
      "mad": 3627,
      "mun": 3628,
      "mate": 3629,
      "mort": 3630,
      "mage": 3631,
      "mass": 3632,
      "munity": 3633,
      "nn": 3634,
      "none": 3635,
      "nare": 3636,
      "ners": 3637,
      "nine": 3638,
      "nap": 3639,
      "nts": 3640,
      "nations": 3641,
      "nical": 3642,
      "narr": 3643,
      "nalist": 3644,
      "nique": 3645,
      "ois": 3646,
      "ole": 3647,
      "oid": 3648,
      "ove": 3649,
      "oil": 3650,
      "ode": 3651,
      "olo": 3652,
      "oper": 3653,
      "oath": 3654,
      "osen": 3655,
      "obey": 3656,
      "ossible": 3657,
      "obv": 3658,
      "oys": 3659,
      "obser": 3660,
      "py": 3661,
      "pin": 3662,
      "pto": 3663,
      "pil": 3664,
      "pline": 3665,
      "park": 3666,
      "pup": 3667,
      "pard": 3668,
      "plow": 3669,
      "pue": 3670,
      "pace": 3671,
      "pting": 3672,
      "pment": 3673,
      "pite": 3674,
      "prow": 3675,
      "pated": 3676,
      "pap": 3677,
      "pared": 3678,
      "prising": 3679,
      "pins": 3680,
      "pages": 3681,
      "rou": 3682,
      "rac": 3683,
      "rain": 3684,
      "range": 3685,
      "rushed": 3686,
      "raked": 3687,
      "racing": 3688,
      "sas": 3689,
      "soo": 3690,
      "ske": 3691,
      "smo": 3692,
      "sif": 3693,
      "sher": 3694,
      "slight": 3695,
      "sive": 3696,
      "sick": 3697,
      "scar": 3698,
      "slic": 3699,
      "sses": 3700,
      "slightly": 3701,
      "slot": 3702,
      "sash": 3703,
      "scope": 3704,
      "sfer": 3705,
      "snare": 3706,
      "tw": 3707,
      "tall": 3708,
      "tent": 3709,
      "tant": 3710,
      "tite": 3711,
      "task": 3712,
      "ttery": 3713,
      "ttes": 3714,
      "tissu": 3715,
      "tinted": 3716,
      "ured": 3717,
      "usea": 3718,
      "uine": 3719,
      "uated": 3720,
      "ugg": 3721,
      "uences": 3722,
      "udder": 3723,
      "udent": 3724,
      "ugly": 3725,
      "vall": 3726,
      "vent": 3727,
      "vant": 3728,
      "vation": 3729,
      "vice": 3730,
      "vision": 3731,
      "venty": 3732,
      "vably": 3733,
      "virt": 3734,
      "wn": 3735,
      "wand": 3736,
      "wis": 3737,
      "wren": 3738,
      "wars": 3739,
      "winner": 3740,
      "wins": 3741,
      "xing": 3742,
      "xion": 3743,
      "yon": 3744,
      "ying": 3745,
      "yzed": 3746,
      "zor": 3747,
      "zard": 3748,
      "zation": 3749,
      "zzy": 3750,
      "“…": 3751,
      "”)": 3752,
      "…”)": 3753,
      "heat": 3754,
      "hell": 3755,
      "hest": 3756,
      "hend": 3757,
      "hemi": 3758,
      "heries": 3759,
      "heaven": 3760,
      "thed": 3761,
      "thee": 3762,
      "theat": 3763,
      "theus": 3764,
      "ane": 3765,
      "anno": 3766,
      "antry": 3767,
      "ances": 3768,
      "ancy": 3769,
      "annn": 3770,
      "inion": 3771,
      "ination": 3772,
      "inous": 3773,
      "incor": 3774,
      "inary": 3775,
      "inches": 3776,
      "inals": 3777,
      "inshore": 3778,
      "infl": 3779,
      "inative": 3780,
      "inwards": 3781,
      "indestru": 3782,
      "inois": 3783,
      "isher": 3784,
      "isped": 3785,
      "istry": 3786,
      "isions": 3787,
      "iscent": 3788,
      "ishes": 3789,
      "iscope": 3790,
      "isode": 3791,
      "ree": 3792,
      "reas": 3793,
      "reed": 3794,
      "rebe": 3795,
      "rely": 3796,
      "reli": 3797,
      "rever": 3798,
      "remo": 3799,
      "remp": 3800,
      "reple": 3801,
      "requ": 3802,
      "reput": 3803,
      "repr": 3804,
      "recurrent": 3805,
      "relic": 3806,
      "returned": 3807,
      "reci": 3808,
      "refresh": 3809,
      "remin": 3810,
      "remon": 3811,
      "remove": 3812,
      "relives": 3813,
      "remind": 3814,
      "remain": 3815,
      "returns": 3816,
      "remark": 3817,
      "report": 3818,
      "release": 3819,
      "rebaited": 3820,
      "remarks": 3821,
      "revis": 3822,
      "retreated": 3823,
      "replaces": 3824,
      "rehend": 3825,
      "thy": 3826,
      "thday": 3827,
      "thick": 3828,
      "thirst": 3829,
      "thless": 3830,
      "thod": 3831,
      "thump": 3832,
      "thole": 3833,
      "ouble": 3834,
      "ouching": 3835,
      "att": 3836,
      "atmo": 3837,
      "atter": 3838,
      "atic": 3839,
      "ature": 3840,
      "attain": 3841,
      "atform": 3842,
      "atory": 3843,
      "ases": 3844,
      "aster": 3845,
      "aside": 3846,
      "asped": 3847,
      "assi": 3848,
      "ashore": 3849,
      "ert": 3850,
      "erous": 3851,
      "erally": 3852,
      "erring": 3853,
      "erable": 3854,
      "eros": 3855,
      "ercepti": 3856,
      "erheads": 3857,
      "ont": 3858,
      "ongest": 3859,
      "edges": 3860,
      "ingle": 3861,
      "ingred": 3862,
      "toe": 3863,
      "tom": 3864,
      "towe": 3865,
      "tops": 3866,
      "topped": 3867,
      "tomat": 3868,
      "towed": 3869,
      "tossed": 3870,
      "tober": 3871,
      "town": 3872,
      "ofane": 3873,
      "lling": 3874,
      "llation": 3875,
      "llies": 3876,
      "ita": 3877,
      "itted": 3878,
      "itions": 3879,
      "itud": 3880,
      "sten": 3881,
      "stro": 3882,
      "stur": 3883,
      "stack": 3884,
      "stant": 3885,
      "staking": 3886,
      "stage": 3887,
      "stated": 3888,
      "stung": 3889,
      "stagg": 3890,
      "staked": 3891,
      "staring": 3892,
      "staple": 3893,
      "arri": 3894,
      "army": 3895,
      "arable": 3896,
      "ening": 3897,
      "encour": 3898,
      "enges": 3899,
      "enthus": 3900,
      "enjo": 3901,
      "engaged": 3902,
      "nosed": 3903,
      "notic": 3904,
      "nobil": 3905,
      "nodded": 3906,
      "orge": 3907,
      "orche": 3908,
      "lex": 3909,
      "lever": 3910,
      "lege": 3911,
      "leaf": 3912,
      "lemon": 3913,
      "leph": 3914,
      "lements": 3915,
      "leaving": 3916,
      "leaped": 3917,
      "lemn": 3918,
      "ghing": 3919,
      "ado": 3920,
      "ads": 3921,
      "adjust": 3922,
      "admit": 3923,
      "adian": 3924,
      "addressed": 3925,
      "aduated": 3926,
      "advant": 3927,
      "met": 3928,
      "metal": 3929,
      "mets": 3930,
      "mellowed": 3931,
      "metheus": 3932,
      "merely": 3933,
      "method": 3934,
      "ida": 3935,
      "iding": 3936,
      "idge": 3937,
      "idity": 3938,
      "idering": 3939,
      "idences": 3940,
      "idual": 3941,
      "identi": 3942,
      "sest": 3943,
      "sewhere": 3944,
      "sewed": 3945,
      "sected": 3946,
      "severed": 3947,
      "seize": 3948,
      "seventy": 3949,
      "beha": 3950,
      "betr": 3951,
      "beers": 3952,
      "besides": 3953,
      "bearing": 3954,
      "belonged": 3955,
      "bearable": 3956,
      "beads": 3957,
      "wiping": 3958,
      "wicked": 3959,
      "hill": 3960,
      "acy": 3961,
      "acro": 3962,
      "acity": 3963,
      "actor": 3964,
      "acqui": 3965,
      "acious": 3966,
      "accompl": 3967,
      "mantic": 3968,
      "manliness": 3969,
      "owing": 3970,
      "owded": 3971,
      "Here": 3972,
      "Heart": 3973,
      "uting": 3974,
      "utal": 3975,
      "rod": 3976,
      "roar": 3977,
      "roam": 3978,
      "rode": 3979,
      "rovise": 3980,
      "romantic": 3981,
      "fist": 3982,
      "fishes": 3983,
      "alk": 3984,
      "altern": 3985,
      "alian": 3986,
      "albat": 3987,
      "altitude": 3988,
      "alized": 3989,
      "alyzed": 3990,
      "eso": 3991,
      "esca": 3992,
      "espue": 3993,
      "welt": 3994,
      "weigh": 3995,
      "ays": 3996,
      "ayal": 3997,
      "lying": 3998,
      "fishless": 3999,
      "sapped": 4000,
      "saint": 4001,
      "shold": 4002,
      "shout": 4003,
      "shone": 4004,
      "sham": 4005,
      "shru": 4006,
      "shap": 4007,
      "shared": 4008,
      "shining": 4009,
      "shudder": 4010,
      "shingle": 4011,
      "within": 4012,
      "withheld": 4013,
      "tip": 4014,
      "tious": 4015,
      "tipped": 4016,
      "lio": 4017,
      "lip": 4018,
      "lier": 4019,
      "lied": 4020,
      "liver": 4021,
      "lice": 4022,
      "limit": 4023,
      "likes": 4024,
      "lific": 4025,
      "lization": 4026,
      "unk": 4027,
      "unt": 4028,
      "unlo": 4029,
      "unte": 4030,
      "unav": 4031,
      "unend": 4032,
      "unite": 4033,
      "unless": 4034,
      "unjust": 4035,
      "unhooked": 4036,
      "unbelie": 4037,
      "unlucky": 4038,
      "unrolled": 4039,
      "untied": 4040,
      "unintelligent": 4041,
      "unworthy": 4042,
      "unknot": 4043,
      "untar": 4044,
      "unarmed": 4045,
      "unpleasant": 4046,
      "undefeated": 4047,
      "unrolling": 4048,
      "unnecessarily": 4049,
      "undul": 4050,
      "unbearable": 4051,
      "note": 4052,
      "noting": 4053,
      "fection": 4054,
      "femin": 4055,
      "feared": 4056,
      "feathers": 4057,
      "bother": 4058,
      "bored": 4059,
      "bolt": 4060,
      "bodies": 4061,
      "agul": 4062,
      "agreed": 4063,
      "aining": 4064,
      "chall": 4065,
      "chur": 4066,
      "chnique": 4067,
      "chances": 4068,
      "chalk": 4069,
      "alleg": 4070,
      "vern": 4071,
      "verte": 4072,
      "thout": 4073,
      "forth": 4074,
      "forget": 4075,
      "fortun": 4076,
      "forged": 4077,
      "forks": 4078,
      "sore": 4079,
      "soak": 4080,
      "soap": 4081,
      "soles": 4082,
      "soared": 4083,
      "sores": 4084,
      "sophy": 4085,
      "socket": 4086,
      "solemn": 4087,
      "iron": 4088,
      "iring": 4089,
      "irit": 4090,
      "irrit": 4091,
      "haven": 4092,
      "having": 4093,
      "hazard": 4094,
      "riad": 4095,
      "rich": 4096,
      "river": 4097,
      "rical": 4098,
      "riction": 4099,
      "ripping": 4100,
      "urb": 4101,
      "ural": 4102,
      "urally": 4103,
      "urring": 4104,
      "urges": 4105,
      "nowledge": 4106,
      "entity": 4107,
      "entered": 4108,
      "entrance": 4109,
      "link": 4110,
      "liner": 4111,
      "lintered": 4112,
      "outfi": 4113,
      "outgrow": 4114,
      "cot": 4115,
      "core": 4116,
      "cove": 4117,
      "coal": 4118,
      "cock": 4119,
      "cocks": 4120,
      "copper": 4121,
      "colon": 4122,
      "coagul": 4123,
      "moist": 4124,
      "motor": 4125,
      "nel": 4126,
      "neat": 4127,
      "nest": 4128,
      "near": 4129,
      "neare": 4130,
      "neys": 4131,
      "ceed": 4132,
      "ceive": 4133,
      "cement": 4134,
      "ceremon": 4135,
      "thoughtless": 4136,
      "thoughtful": 4137,
      "oneself": 4138,
      "handline": 4139,
      "handled": 4140,
      "ami": 4141,
      "amming": 4142,
      "ambre": 4143,
      "ambul": 4144,
      "amatic": 4145,
      "areness": 4146,
      "arettes": 4147,
      "ifing": 4148,
      "watches": 4149,
      "dom": 4150,
      "dove": 4151,
      "mushy": 4152,
      "acks": 4153,
      "ackening": 4154,
      "acknowledge": 4155,
      "gelat": 4156,
      "gelio": 4157,
      "term": 4158,
      "ters": 4159,
      "terly": 4160,
      "terwo": 4161,
      "terms": 4162,
      "terior": 4163,
      "illing": 4164,
      "illment": 4165,
      "whore": 4166,
      "spar": 4167,
      "spent": 4168,
      "spine": 4169,
      "sphere": 4170,
      "splash": 4171,
      "splen": 4172,
      "splashed": 4173,
      "spinal": 4174,
      "spends": 4175,
      "spray": 4176,
      "sperous": 4177,
      "splice": 4178,
      "spirit": 4179,
      "splintered": 4180,
      "spilling": 4181,
      "----“": 4182,
      "del": 4183,
      "dew": 4184,
      "deed": 4185,
      "defin": 4186,
      "decor": 4187,
      "devo": 4188,
      "decepti": 4189,
      "detached": 4190,
      "determin": 4191,
      "depression": 4192,
      "debate": 4193,
      "device": 4194,
      "deceive": 4195,
      "deterior": 4196,
      "Its": 4197,
      "Italian": 4198,
      "upon": 4199,
      "upation": 4200,
      "upward": 4201,
      "owner": 4202,
      "eping": 4203,
      "episode": 4204,
      "waters": 4205,
      "waterdrop": 4206,
      "cancer": 4207,
      "canyon": 4208,
      "track": 4209,
      "trace": 4210,
      "trough": 4211,
      "truck": 4212,
      "trust": 4213,
      "tracts": 4214,
      "trusted": 4215,
      "trouble": 4216,
      "trunk": 4217,
      "training": 4218,
      "boys": 4219,
      "mpse": 4220,
      "mpion": 4221,
      "mpany": 4222,
      "mption": 4223,
      "mpered": 4224,
      "cave": 4225,
      "cape": 4226,
      "cable": 4227,
      "caps": 4228,
      "capped": 4229,
      "capes": 4230,
      "cken": 4231,
      "ideas": 4232,
      "load": 4233,
      "loving": 4234,
      "local": 4235,
      "loves": 4236,
      "logg": 4237,
      "losing": 4238,
      "loses": 4239,
      "loyed": 4240,
      "loyal": 4241,
      "loading": 4242,
      "location": 4243,
      "losophy": 4244,
      "ards": 4245,
      "ardice": 4246,
      "ionist": 4247,
      "suade": 4248,
      "suited": 4249,
      "sucking": 4250,
      "susten": 4251,
      "tap": 4252,
      "tale": 4253,
      "tape": 4254,
      "tavern": 4255,
      "backswe": 4256,
      "backwards": 4257,
      "background": 4258,
      "ulled": 4259,
      "stray": 4260,
      "strate": 4261,
      "strang": 4262,
      "stragg": 4263,
      "strongest": 4264,
      "skinning": 4265,
      "greatness": 4266,
      "fting": 4267,
      "peon": 4268,
      "pebbled": 4269,
      "pop": 4270,
      "polit": 4271,
      "posed": 4272,
      "posit": 4273,
      "posing": 4274,
      "gods": 4275,
      "somewhat": 4276,
      "somewhere": 4277,
      "seeing": 4278,
      "mustn": 4279,
      "tear": 4280,
      "text": 4281,
      "tearing": 4282,
      "teleph": 4283,
      "technique": 4284,
      "tempered": 4285,
      "worst": 4286,
      "pery": 4287,
      "perio": 4288,
      "persed": 4289,
      "perfect": 4290,
      "perils": 4291,
      "periscope": 4292,
      "persuade": 4293,
      "lfo": 4294,
      "womb": 4295,
      "otherwise": 4296,
      "conste": 4297,
      "conqu": 4298,
      "consc": 4299,
      "conden": 4300,
      "contro": 4301,
      "contour": 4302,
      "contempt": 4303,
      "contact": 4304,
      "consum": 4305,
      "constant": 4306,
      "artistry": 4307,
      "abused": 4308,
      "abrupt": 4309,
      "ppes": 4310,
      "derful": 4311,
      "sideways": 4312,
      "uey": 4313,
      "braked": 4314,
      "brutal": 4315,
      "hasiz": 4316,
      "plung": 4317,
      "plating": 4318,
      "placing": 4319,
      "plum": 4320,
      "plash": 4321,
      "platform": 4322,
      "news": 4323,
      "exped": 4324,
      "exist": 4325,
      "explan": 4326,
      "expect": 4327,
      "expression": 4328,
      "extrem": 4329,
      "overhead": 4330,
      "oversimp": 4331,
      "overlapping": 4332,
      "shouldered": 4333,
      "cles": 4334,
      "cleus": 4335,
      "inkles": 4336,
      "bling": 4337,
      "blurring": 4338,
      "turing": 4339,
      "intoler": 4340,
      "steep": 4341,
      "steel": 4342,
      "myths": 4343,
      "myriad": 4344,
      "using": 4345,
      "seaport": 4346,
      "affin": 4347,
      "affect": 4348,
      "affection": 4349,
      "judg": 4350,
      "judged": 4351,
      "sunny": 4352,
      "sunburned": 4353,
      "hole": 4354,
      "hoea": 4355,
      "holes": 4356,
      "holid": 4357,
      "maw": 4358,
      "max": 4359,
      "math": 4360,
      "mention": 4361,
      "mendous": 4362,
      "indic": 4363,
      "indiv": 4364,
      "etition": 4365,
      "pulls": 4366,
      "lighted": 4367,
      "clue": 4368,
      "clues": 4369,
      "class": 4370,
      "forearm": 4371,
      "foreign": 4372,
      "foreshadow": 4373,
      "hatche": 4374,
      "razor": 4375,
      "theirs": 4376,
      "killers": 4377,
      "longs": 4378,
      "longwing": 4379,
      "longtest": 4380,
      "longitud": 4381,
      "wells": 4382,
      "mbound": 4383,
      "sawed": 4384,
      "ives": 4385,
      "please": 4386,
      "pleased": 4387,
      "feels": 4388,
      "blew": 4389,
      "bleached": 4390,
      "blessed": 4391,
      "ices": 4392,
      "ically": 4393,
      "ician": 4394,
      "icature": 4395,
      "achingly": 4396,
      "Instead": 4397,
      "Interwo": 4398,
      "Indeed": 4399,
      "ular": 4400,
      "ulsive": 4401,
      "thanked": 4402,
      "turning": 4403,
      "fastness": 4404,
      "fastest": 4405,
      "fastened": 4406,
      "?\"(": 4407,
      "writes": 4408,
      "writers": 4409,
      "ishing": 4410,
      "ishly": 4411,
      "dresses": 4412,
      "whiplash": 4413,
      "proved": 4414,
      "prospe": 4415,
      "provo": 4416,
      "process": 4417,
      "probing": 4418,
      "prolonged": 4419,
      "progress": 4420,
      "prosperous": 4421,
      "prolongs": 4422,
      "betting": 4423,
      "steads": 4424,
      "steadfastness": 4425,
      "Note": 4426,
      "athlete": 4427,
      "reading": 4428,
      "endures": 4429,
      "chew": 4430,
      "cheap": 4431,
      "cheats": 4432,
      "hunt": 4433,
      "hunts": 4434,
      "swum": 4435,
      "bake": 4436,
      "bailed": 4437,
      "uses": 4438,
      "useless": 4439,
      "beforehand": 4440,
      "sails": 4441,
      "crude": 4442,
      "crumb": 4443,
      "crash": 4444,
      "crisped": 4445,
      "crouching": 4446,
      "crowded": 4447,
      "ptly": 4448,
      "slower": 4449,
      "slowing": 4450,
      "oused": 4451,
      "ously": 4452,
      "yours": 4453,
      "speaking": 4454,
      "afterward": 4455,
      "afterwards": 4456,
      "aftermath": 4457,
      "itement": 4458,
      "leton": 4459,
      "letting": 4460,
      "harm": 4461,
      "harmed": 4462,
      "hardest": 4463,
      "stored": 4464,
      "storms": 4465,
      "literally": 4466,
      "sible": 4467,
      "sized": 4468,
      "sipated": 4469,
      "sighing": 4470,
      "shifts": 4471,
      "shield": 4472,
      "intense": 4473,
      "intended": 4474,
      "norther": 4475,
      "northern": 4476,
      "facets": 4477,
      "smiled": 4478,
      "smuting": 4479,
      "smacks": 4480,
      "restriction": 4481,
      "throughout": 4482,
      "died": 4483,
      "diver": 4484,
      "dipped": 4485,
      "digest": 4486,
      "diarr": 4487,
      "directly": 4488,
      "dizzy": 4489,
      "preach": 4490,
      "preten": 4491,
      "preced": 4492,
      "preocc": 4493,
      "prepared": 4494,
      "tening": 4495,
      "tender": 4496,
      "slugg": 4497,
      "slamming": 4498,
      "slackening": 4499,
      "offer": 4500,
      "offended": 4501,
      "lifelong": 4502,
      "curve": 4503,
      "eys": 4504,
      "final": 4505,
      "finish": 4506,
      "finished": 4507,
      "finned": 4508,
      "fineness": 4509,
      "lesser": 4510,
      "keeping": 4511,
      "awake": 4512,
      "awareness": 4513,
      "opinion": 4514,
      "rows": 4515,
      "sinners": 4516,
      "sleeps": 4517,
      "sleepy": 4518,
      "tree": 4519,
      "trees": 4520,
      "tremendous": 4521,
      "settle": 4522,
      "justifi": 4523,
      "Sox": 4524,
      "Soon": 4525,
      "cartil": 4526,
      "caricature": 4527,
      "fights": 4528,
      "fighter": 4529,
      "fighters": 4530,
      "hardness": 4531,
      "risks": 4532,
      "strongly": 4533,
      "scatter": 4534,
      "wants": 4535,
      "strenuous": 4536,
      "strengthen": 4537,
      "vels": 4538,
      "smaller": 4539,
      "1900": 4540,
      "Whatever": 4541,
      "correctly": 4542,
      "corrupt": 4543,
      "cordel": 4544,
      "disci": 4545,
      "distin": 4546,
      "discolor": 4547,
      "disgraceful": 4548,
      "distant": 4549,
      "disaster": 4550,
      "dislikes": 4551,
      "dispersed": 4552,
      "dissipated": 4553,
      "freshe": 4554,
      "fresher": 4555,
      "compact": 4556,
      "compass": 4557,
      "comprehend": 4558,
      "complex": 4559,
      "competition": 4560,
      "clearing": 4561,
      "brood": 4562,
      "drops": 4563,
      "dropping": 4564,
      "knifing": 4565,
      "knives": 4566,
      "painted": 4567,
      "painstaking": 4568,
      "painters": 4569,
      "waves": 4570,
      "wavering": 4571,
      "heaved": 4572,
      "heaviness": 4573,
      "angle": 4574,
      "angry": 4575,
      "angular": 4576,
      "remembers": 4577,
      "deeply": 4578,
      "openly": 4579,
      "masts": 4580,
      "ruin": 4581,
      "ruthless": 4582,
      "shell": 4583,
      "shelf": 4584,
      "shells": 4585,
      "shearing": 4586,
      "surf": 4587,
      "surge": 4588,
      "surprising": 4589,
      "isted": 4590,
      "istance": 4591,
      "istently": 4592,
      "armor": 4593,
      "harpooned": 4594,
      "ailed": 4595,
      "created": 4596,
      "human": 4597,
      "hubris": 4598,
      "hueso": 4599,
      "hurry": 4600,
      "ody": 4601,
      "odor": 4602,
      "profane": 4603,
      "woods": 4604,
      "wooden": 4605,
      "begged": 4606,
      "begins": 4607,
      "acted": 4608,
      "actually": 4609,
      "spoil": 4610,
      "spoken": 4611,
      "spoons": 4612,
      "spoils": 4613,
      "courtes": 4614,
      "mating": 4615,
      "mature": 4616,
      "tunas": 4617,
      "tunny": 4618,
      "tunnel": 4619,
      "wingspread": 4620,
      "highway": 4621,
      "comment": 4622,
      "community": 4623,
      "telling": 4624,
      "ceding": 4625,
      "cesses": 4626,
      "landmarks": 4627,
      "lating": 4628,
      "piles": 4629,
      "passing": 4630,
      "passes": 4631,
      "torn": 4632,
      "stays": 4633,
      "doesn": 4634,
      "calambre": 4635,
      "calloused": 4636,
      "dramatic": 4637,
      "party": 4638,
      "served": 4639,
      "series": 4640,
      "serious": 4641,
      "seriously": 4642,
      "swift": 4643,
      "salting": 4644,
      "salao": 4645,
      "voice": 4646,
      "voices": 4647,
      "threshold": 4648,
      "llowing": 4649,
      "charcoal": 4650,
      "kets": 4651,
      "experiment": 4652,
      "straighter": 4653,
      "Coal": 4654,
      "Coast": 4655,
      "Coler": 4656,
      "Company": 4657,
      "Ford": 4658,
      "bud": 4659,
      "bumps": 4660,
      "buoys": 4661,
      "dying": 4662,
      "drive": 4663,
      "driver": 4664,
      "drives": 4665,
      "flew": 4666,
      "fleas": 4667,
      "flecks": 4668,
      "flexing": 4669,
      "winds": 4670,
      "windless": 4671,
      "trude": 4672,
      "strangely": 4673,
      "skills": 4674,
      "skilled": 4675,
      "excel": 4676,
      "swamps": 4677,
      "swamped": 4678,
      "Afterwards": 4679,
      "grand": 4680,
      "grind": 4681,
      "grating": 4682,
      "grasped": 4683,
      "graduated": 4684,
      "gracious": 4685,
      "mies": 4686,
      "purpose": 4687,
      "stricken": 4688,
      "shake": 4689,
      "tireder": 4690,
      "tiredness": 4691,
      "needs": 4692,
      "needless": 4693,
      "confused": 4694,
      "treacheries": 4695,
      "Something": 4696,
      "colds": 4697,
      "colder": 4698,
      "slime": 4699,
      "slick": 4700,
      "slimy": 4701,
      "slipping": 4702,
      "meantime": 4703,
      "beating": 4704,
      "choose": 4705,
      "formed": 4706,
      "formalized": 4707,
      "ignancy": 4708,
      "players": 4709,
      "cords": 4710,
      "Only": 4711,
      "Perico": 4712,
      "civi": 4713,
      "design": 4714,
      "descent": 4715,
      "despair": 4716,
      "desert": 4717,
      "eased": 4718,
      "easier": 4719,
      "easterly": 4720,
      "immin": 4721,
      "immor": 4722,
      "immedi": 4723,
      "immun": 4724,
      "imply": 4725,
      "impossible": 4726,
      "impercepti": 4727,
      "implements": 4728,
      "improvise": 4729,
      "implied": 4730,
      "loops": 4731,
      "looped": 4732,
      "omical": 4733,
      "omitted": 4734,
      "trip": 4735,
      "tries": 4736,
      "triump": 4737,
      "triangular": 4738,
      "novelist": 4739,
      "roadsteads": 4740,
      "strained": 4741,
      "Thus": 4742,
      "Week": 4743,
      "eling": 4744,
      "elbows": 4745,
      "eighteen": 4746,
      "friction": 4747,
      "frigate": 4748,
      "iceber": 4749,
      "patient": 4750,
      "particle": 4751,
      "particul": 4752,
      "paralyzed": 4753,
      "parody": 4754,
      "sensit": 4755,
      "sweating": 4756,
      "sweeping": 4757,
      "warbler": 4758,
      "spurt": 4759,
      "spurlike": 4760,
      "subtle": 4761,
      "subtly": 4762,
      "submer": 4763,
      "subdue": 4764,
      "suburb": 4765,
      "subtracts": 4766,
      "closest": 4767,
      "closely": 4768,
      "calmer": 4769,
      "football": 4770,
      "gaffed": 4771,
      "bullet": 4772,
      "bullfighter": 4773,
      "denoun": 4774,
      "grocer": 4775,
      "minable": 4776,
      "minimu": 4777,
      "sorrow": 4778,
      "interior": 4779,
      "interpol": 4780,
      "interlude": 4781,
      "intersected": 4782,
      "interminable": 4783,
      "towards": 4784,
      "blooded": 4785,
      "clouding": 4786,
      "quire": 4787,
      "quito": 4788,
      "aboard": 4789,
      "bites": 4790,
      "bitter": 4791,
      "bitten": 4792,
      "cream": 4793,
      "creased": 4794,
      "creases": 4795,
      "cents": 4796,
      "center": 4797,
      "kneeling": 4798,
      "moned": 4799,
      "monolo": 4800,
      "price": 4801,
      "privi": 4802,
      "silent": 4803,
      "realist": 4804,
      "realiz": 4805,
      "realism": 4806,
      "realized": 4807,
      "standing": 4808,
      "standards": 4809,
      "stepping": 4810,
      "chosen": 4811,
      "chopping": 4812,
      "deadly": 4813,
      "confided": 4814,
      "talking": 4815,
      "talkers": 4816,
      "suggests": 4817,
      "suggestive": 4818,
      "suggestions": 4819,
      "believed": 4820,
      "believes": 4821,
      "Before": 4822,
      "Canary": 4823,
      "Canadian": 4824,
      "Student": 4825,
      "eks": 4826,
      "panicked": 4827,
      "pounded": 4828,
      "runner": 4829,
      "sentence": 4830,
      "sentences": 4831,
      "supper": 4832,
      "suppor": 4833,
      "support": 4834,
      "supposed": 4835,
      "treats": 4836,
      "wallowing": 4837,
      "learned": 4838,
      "learning": 4839,
      "rolls": 4840,
      "decisions": 4841,
      "planes": 4842,
      "speeded": 4843,
      "Today": 4844,
      "Tolsto": 4845,
      "applies": 4846,
      "appraising": 4847,
      "appreci": 4848,
      "buron": 4849,
      "burst": 4850,
      "bursting": 4851,
      "bills": 4852,
      "cats": 4853,
      "fourth": 4854,
      "flatly": 4855,
      "glowing": 4856,
      "greener": 4857,
      "kinds": 4858,
      "kindness": 4859,
      "porate": 4860,
      "ptic": 4861,
      "ptive": 4862,
      "single": 4863,
      "heartless": 4864,
      "streak": 4865,
      "street": 4866,
      "streets": 4867,
      "higan": 4868,
      "highest": 4869,
      "bottom": 4870,
      "testifi": 4871,
      "volent": 4872,
      "volunte": 4873,
      "questioning": 4874,
      "difficulty": 4875,
      "Aloud": 4876,
      "Although": 4877,
      "Albacore": 4878,
      "blows": 4879,
      "culine": 4880,
      "climax": 4881,
      "cryptic": 4882,
      "employed": 4883,
      "floating": 4884,
      "floats": 4885,
      "leness": 4886,
      "moralist": 4887,
      "milated": 4888,
      "numbers": 4889,
      "nucleus": 4890,
      "vior": 4891,
      "erior": 4892,
      "student": 4893,
      "actions": 4894,
      "shades": 4895,
      "tickets": 4896,
      "allowed": 4897,
      "younger": 4898,
      "doorway": 4899,
      "terns": 4900,
      "gotten": 4901,
      "worthless": 4902,
      "convulsive": 4903,
      "brains": 4904,
      "harbors": 4905,
      "1955": 4906,
      "comfort": 4907,
      "effects": 4908,
      "solidity": 4909,
      "phosphor": 4910,
      "intelligence": 4911,
      "intelligently": 4912,
      "Fishing": 4913,
      "Work": 4914,
      "Words": 4915,
      "barely": 4916,
      "barefoot": 4917,
      "dusk": 4918,
      "gunner": 4919,
      "grip": 4920,
      "grimage": 4921,
      "grippes": 4922,
      "horse": 4923,
      "horror": 4924,
      "midnight": 4925,
      "malignancy": 4926,
      "maine": 4927,
      "native": 4928,
      "natural": 4929,
      "punished": 4930,
      "sandpaper": 4931,
      "violet": 4932,
      "violating": 4933,
      "resistance": 4934,
      "thirds": 4935,
      "orders": 4936,
      "activeness": 4937,
      "shot": 4938,
      "shoal": 4939,
      "shoes": 4940,
      "boxer": 4941,
      "poisonous": 4942,
      "condition": 4943,
      "blackness": 4944,
      "1932": 4945,
      "1935": 4946,
      "1938": 4947,
      "1939": 4948,
      "prayer": 4949,
      "drinks": 4950,
      "drinking": 4951,
      "fingernail": 4952,
      "shadows": 4953,
      "...": 4954,
      "bonita": 4955,
      "cription": 4956,
      "country": 4957,
      "drying": 4958,
      "eagle": 4959,
      "emotional": 4960,
      "fied": 4961,
      "fibered": 4962,
      "flag": 4963,
      "flown": 4964,
      "foods": 4965,
      "failed": 4966,
      "failures": 4967,
      "giving": 4968,
      "guts": 4969,
      "mistake": 4970,
      "missed": 4971,
      "missions": 4972,
      "miserable": 4973,
      "mistrusted": 4974,
      "nausea": 4975,
      "promptly": 4976,
      "saddest": 4977,
      "sorts": 4978,
      "signs": 4979,
      "tasted": 4980,
      "tasting": 4981,
      "walk": 4982,
      "interested": 4983,
      "interesting": 4984,
      "integrating": 4985,
      "involuntar": 4986,
      "respected": 4987,
      "leaves": 4988,
      "accepting": 4989,
      "chairs": 4990,
      "springs": 4991,
      "springiness": 4992,
      "teetered": 4993,
      "examine": 4994,
      "qualities": 4995,
      "swallows": 4996,
      "presence": 4997,
      "1947": 4998,
      "freely": 4999,
      "hurricanes": 5000,
      "commencing": 5001,
      "passage": 5002,
      "happening": 5003,
      "desperation": 5004,
      "lashings": 5005,
      "certainly": 5006,
      "burning": 5007,
      "burnished": 5008,
      "favors": 5009,
      "favorable": 5010,
      "stupidity": 5011,
      "?”)": 5012,
      "?”“": 5013,
      "Joe": 5014,
      "Jota": 5015,
      "Leagues": 5016,
      "Otherwise": 5017,
      "Phillies": 5018,
      "Rime": 5019,
      "River": 5020,
      "batics": 5021,
      "bulk": 5022,
      "bulge": 5023,
      "bulged": 5024,
      "brighter": 5025,
      "crossing": 5026,
      "crosswise": 5027,
      "dorado": 5028,
      "evade": 5029,
      "events": 5030,
      "evading": 5031,
      "evidences": 5032,
      "fitting": 5033,
      "fitted": 5034,
      "glad": 5035,
      "guard": 5036,
      "germ": 5037,
      "gentleness": 5038,
      "games": 5039,
      "lacked": 5040,
      "lacking": 5041,
      "push": 5042,
      "parents": 5043,
      "southern": 5044,
      "stooped": 5045,
      "sounds": 5046,
      "usual": 5047,
      "wrinkles": 5048,
      "width": 5049,
      "wider": 5050,
      "wrapping": 5051,
      "references": 5052,
      "referee": 5053,
      "reporting": 5054,
      "atively": 5055,
      "stiffened": 5056,
      "enemies": 5057,
      "leads": 5058,
      "leaders": 5059,
      "admired": 5060,
      "seasoned": 5061,
      "seascape": 5062,
      "albacores": 5063,
      "feature": 5064,
      "spattered": 5065,
      "transfer": 5066,
      "transmuting": 5067,
      "mptuous": 5068,
      "succeed": 5069,
      "successes": 5070,
      "timelessness": 5071,
      "pectorals": 5072,
      "poem": 5073,
      "teams": 5074,
      "perceptible": 5075,
      "perceptibly": 5076,
      "continue": 5077,
      "contestant": 5078,
      "artists": 5079,
      "brae": 5080,
      "bravery": 5081,
      "braided": 5082,
      "bravels": 5083,
      "pleases": 5084,
      "bleeds": 5085,
      "throwing": 5086,
      "speaks": 5087,
      "sixty": 5088,
      "presents": 5089,
      "presentation": 5090,
      "1917": 5091,
      "1918": 5092,
      "discussed": 5093,
      "materials": 5094,
      "conflicts": 5095,
      "slippery": 5096,
      "descriptive": 5097,
      "loosened": 5098,
      "Thanks": 5099,
      "interpreting": 5100,
      "interpreted": 5101,
      "central": 5102,
      "Anyone": 5103,
      "Anyway": 5104,
      "Anything": 5105,
      "occurs": 5106,
      "emphasized": 5107,
      "reflections": 5108,
      "violated": 5109,
      "revealing": 5110,
      "physician": 5111,
      "accepts": 5112,
      "accepted": 5113,
      "acceptance": 5114,
      "powerful": 5115,
      "resulted": 5116,
      "ART": 5117,
      "ARLIE": 5118,
      "Among": 5119,
      "ERNES": 5120,
      "Hot": 5121,
      "Holy": 5122,
      "Hope": 5123,
      "Peter": 5124,
      "Tiburon": 5125,
      "barred": 5126,
      "barrac": 5127,
      "ctible": 5128,
      "cherished": 5129,
      "doubted": 5130,
      "damage": 5131,
      "drawings": 5132,
      "economical": 5133,
      "following": 5134,
      "faces": 5135,
      "fallen": 5136,
      "fifth": 5137,
      "figures": 5138,
      "gaunt": 5139,
      "knots": 5140,
      "knotted": 5141,
      "merits": 5142,
      "nourishing": 5143,
      "ramid": 5144,
      "rammed": 5145,
      "scape": 5146,
      "slitted": 5147,
      "target": 5148,
      "tackle": 5149,
      "tackles": 5150,
      "tackling": 5151,
      "toughness": 5152,
      "variet": 5153,
      "wounds": 5154,
      "yards": 5155,
      "incident": 5156,
      "islands": 5157,
      "refers": 5158,
      "refrain": 5159,
      "referring": 5160,
      "region": 5161,
      "regated": 5162,
      "regions": 5163,
      "returning": 5164,
      "thinly": 5165,
      "editors": 5166,
      "nooses": 5167,
      "originally": 5168,
      "shrimp": 5169,
      "rigor": 5170,
      "rigidity": 5171,
      "defend": 5172,
      "defense": 5173,
      "defying": 5174,
      "decker": 5175,
      "capacity": 5176,
      "capturing": 5177,
      "captured": 5178,
      "teenth": 5179,
      "temptation": 5180,
      "temptations": 5181,
      "consider": 5182,
      "considering": 5183,
      "consistently": 5184,
      "concentrations": 5185,
      "placid": 5186,
      "explained": 5187,
      "mystery": 5188,
      "quarters": 5189,
      "quartering": 5190,
      "breathing": 5191,
      "provide": 5192,
      "provided": 5193,
      "providing": 5194,
      "properly": 5195,
      "produce": 5196,
      "product": 5197,
      "produced": 5198,
      "cheerfully": 5199,
      "cheeks": 5200,
      "hunters": 5201,
      "dimensions": 5202,
      "preparing": 5203,
      "preparation": 5204,
      "preparations": 5205,
      "comparatively": 5206,
      "broadside": 5207,
      "broadbill": 5208,
      "appetite": 5209,
      "pivoting": 5210,
      "swirls": 5211,
      "meanings": 5212,
      "trickle": 5213,
      "trickery": 5214,
      "elsewhere": 5215,
      "minutes": 5216,
      "medium": 5217,
      "mediately": 5218,
      "situations": 5219,
      "supplies": 5220,
      "climbed": 5221,
      "travels": 5222,
      "activity": 5223,
      "responding": 5224,
      "publisher": 5225,
      "discussing": 5226,
      "Certainly": 5227,
      "bubbles": 5228,
      "firmly": 5229,
      "radios": 5230,
      "contribute": 5231,
      "contributed": 5232,
      "contributing": 5233,
      "humiliation": 5234,
      "humiliating": 5235,
      "humiliates": 5236,
      "293": 5237,
      "294": 5238,
      "Better": 5239,
      "Between": 5240,
      "Drink": 5241,
      "Drained": 5242,
      "Despite": 5243,
      "Description": 5244,
      "Elsewhere": 5245,
      "Holding": 5246,
      "Sunday": 5247,
      "Sleeping": 5248,
      "Tigers": 5249,
      "Tigres": 5250,
      "Unless": 5251,
      "cooked": 5252,
      "dgingly": 5253,
      "elder": 5254,
      "earned": 5255,
      "elegant": 5256,
      "elegance": 5257,
      "faster": 5258,
      "fascinated": 5259,
      "folding": 5260,
      "famous": 5261,
      "family": 5262,
      "garland": 5263,
      "garbage": 5264,
      "ivy": 5265,
      "lunged": 5266,
      "lunging": 5267,
      "nakedness": 5268,
      "oakum": 5269,
      "phical": 5270,
      "philosophy": 5271,
      "ppers": 5272,
      "riding": 5273,
      "rounded": 5274,
      "sinking": 5275,
      "snatched": 5276,
      "snatching": 5277,
      "udas": 5278,
      "visible": 5279,
      "healer": 5280,
      "infantry": 5281,
      "inferior": 5282,
      "issues": 5283,
      "recovering": 5284,
      "recogn": 5285,
      "recurring": 5286,
      "recorded": 5287,
      "attract": 5288,
      "attractiveness": 5289,
      "starlight": 5290,
      "stabbed": 5291,
      "stabbing": 5292,
      "statement": 5293,
      "ordinary": 5294,
      "leaping": 5295,
      "meeting": 5296,
      "several": 5297,
      "selects": 5298,
      "selecting": 5299,
      "accused": 5300,
      "accident": 5301,
      "according": 5302,
      "account": 5303,
      "accounts": 5304,
      "robbing": 5305,
      "robber": 5306,
      "rotten": 5307,
      "shorter": 5308,
      "shorten": 5309,
      "shares": 5310,
      "limes": 5311,
      "hauled": 5312,
      "costs": 5313,
      "combining": 5314,
      "combination": 5315,
      "handicap": 5316,
      "handicaps": 5317,
      "mushed": 5318,
      "muscles": 5319,
      "travelled": 5320,
      "travelling": 5321,
      "caution": 5322,
      "cautiously": 5323,
      "summoned": 5324,
      "suitable": 5325,
      "peaks": 5326,
      "politely": 5327,
      "teaching": 5328,
      "concern": 5329,
      "concerned": 5330,
      "construction": 5331,
      "constructed": 5332,
      "excited": 5333,
      "excitement": 5334,
      "extend": 5335,
      "extended": 5336,
      "blades": 5337,
      "bladder": 5338,
      "juicy": 5339,
      "juices": 5340,
      "majesty": 5341,
      "majestic": 5342,
      "hateful": 5343,
      "essential": 5344,
      "essentially": 5345,
      "protected": 5346,
      "protector": 5347,
      "thrusting": 5348,
      "crucified": 5349,
      "crucifixion": 5350,
      "special": 5351,
      "species": 5352,
      "harshness": 5353,
      "storm": 5354,
      "stormbound": 5355,
      "introduced": 5356,
      "introduction": 5357,
      "directions": 5358,
      "presumption": 5359,
      "presumptuous": 5360,
      "slapped": 5361,
      "slapping": 5362,
      "trembling": 5363,
      "settings": 5364,
      "scooped": 5365,
      "scooping": 5366,
      "disgust": 5367,
      "disgusted": 5368,
      "ineffectual": 5369,
      "ineffectually": 5370,
      "complained": 5371,
      "companionship": 5372,
      "practice": 5373,
      "practical": 5374,
      "principle": 5375,
      "principal": 5376,
      "bumped": 5377,
      "bumping": 5378,
      "building": 5379,
      "builders": 5380,
      "imagine": 5381,
      "imaginative": 5382,
      "impressions": 5383,
      "impressionist": 5384,
      "partially": 5385,
      "kneeled": 5386,
      "approach": 5387,
      "approached": 5388,
      "porpoise": 5389,
      "porpoises": 5390,
      "stretched": 5391,
      "stretching": 5392,
      "traitors": 5393,
      "struggle": 5394,
      "struggles": 5395,
      "rubbery": 5396,
      "rubberiness": 5397,
      "poisonings": 5398,
      "flourishes": 5399,
      "nauseate": 5400,
      "nauseated": 5401,
      "response": 5402,
      "responsible": 5403,
      "squarely": 5404,
      "widens": 5405,
      "repeatedly": 5406,
      "repetition": 5407,
      "repetitions": 5408,
      "translation": 5409,
      "translate": 5410,
      "successful": 5411,
      "personalities": 5412,
      "scavenger": 5413,
      "scavengers": 5414,
      "tropic": 5415,
      "tropical": 5416,
      "appearance": 5417,
      "1890": 5418,
      "1899": 5419,
      "cushion": 5420,
      "cushioned": 5421,
      "publication": 5422,
      "rhythmic": 5423,
      "relaxed": 5424,
      "relaxes": 5425,
      "absolutely": 5426,
      "disillusioned": 5427,
      "disillusionment": 5428,
      "effectively": 5429,
      "148": 5430,
      "150": 5431,
      "Adolfo": 5432,
      "Actually": 5433,
      "April": 5434,
      "Artist": 5435,
      "Agua": 5436,
      "Blood": 5437,
      "Bohemi": 5438,
      "Baseball": 5439,
      "CHARLIE": 5440,
      "Chew": 5441,
      "Catalan": 5442,
      "Champion": 5443,
      "Campeon": 5444,
      "Careful": 5445,
      "Cardinals": 5446,
      "Cabanas": 5447,
      "Consider": 5448,
      "Cramp": 5449,
      "CAMPBE": 5450,
      "Daily": 5451,
      "Damn": 5452,
      "Dimaggio": 5453,
      "Ernest": 5454,
      "Esquire": 5455,
      "Eighty": 5456,
      "Florida": 5457,
      "George": 5458,
      "Greeks": 5459,
      "Gertrude": 5460,
      "Hatuey": 5461,
      "Immediately": 5462,
      "Illinois": 5463,
      "Imagine": 5464,
      "IBNER": 5465,
      "Journeys": 5466,
      "James": 5467,
      "Kansas": 5468,
      "KINS": 5469,
      "Lie": 5470,
      "Lottery": 5471,
      "Landscape": 5472,
      "Ligas": 5473,
      "Miami": 5474,
      "Monday": 5475,
      "Martin": 5476,
      "Michigan": 5477,
      "Mosquito": 5478,
      "MARY": 5479,
      "Negro": 5480,
      "Naturally": 5481,
      "National": 5482,
      "October": 5483,
      "Orion": 5484,
      "Obviously": 5485,
      "Plenty": 5486,
      "Pratt": 5487,
      "Paris": 5488,
      "Prometheus": 5489,
      "Pablo": 5490,
      "PERKINS": 5491,
      "Rogelio": 5492,
      "Reds": 5493,
      "Slide": 5494,
      "Shifting": 5495,
      "Sacred": 5496,
      "Sentences": 5497,
      "Stein": 5498,
      "Slowly": 5499,
      "Surely": 5500,
      "SCRIBNER": 5501,
      "Titanic": 5502,
      "Toronto": 5503,
      "Truly": 5504,
      "Technical": 5505,
      "Usually": 5506,
      "Under": 5507,
      "White": 5508,
      "Without": 5509,
      "Wonderful": 5510,
      "While": 5511,
      "Writer": 5512,
      "automat": 5513,
      "awarded": 5514,
      "aimless": 5515,
      "banded": 5516,
      "benign": 5517,
      "birthday": 5518,
      "brief": 5519,
      "blind": 5520,
      "block": 5521,
      "bending": 5522,
      "biogra": 5523,
      "benevolent": 5524,
      "cadence": 5525,
      "child": 5526,
      "cowardice": 5527,
      "congregated": 5528,
      "cigarettes": 5529,
      "credit": 5530,
      "critics": 5531,
      "dullness": 5532,
      "digits": 5533,
      "darted": 5534,
      "ducks": 5535,
      "drugstore": 5536,
      "earlier": 5537,
      "element": 5538,
      "eels": 5539,
      "equipment": 5540,
      "eggs": 5541,
      "evolving": 5542,
      "emergenc": 5543,
      "front": 5544,
      "faded": 5545,
      "future": 5546,
      "falsest": 5547,
      "flippers": 5548,
      "flinch": 5549,
      "fidelity": 5550,
      "frame": 5551,
      "frightened": 5552,
      "flashes": 5553,
      "fruit": 5554,
      "fulfillment": 5555,
      "focus": 5556,
      "genuine": 5557,
      "glimpse": 5558,
      "gallant": 5559,
      "gamble": 5560,
      "grudgingly": 5561,
      "glory": 5562,
      "horny": 5563,
      "iastic": 5564,
      "ientiously": 5565,
      "jacket": 5566,
      "juncture": 5567,
      "journalist": 5568,
      "jagged": 5569,
      "jokes": 5570,
      "kerosen": 5571,
      "listening": 5572,
      "lunch": 5573,
      "lapses": 5574,
      "masculine": 5575,
      "mortis": 5576,
      "nineteenth": 5577,
      "napkin": 5578,
      "narrative": 5579,
      "oidable": 5580,
      "overemp": 5581,
      "operation": 5582,
      "oaths": 5583,
      "obvious": 5584,
      "observation": 5585,
      "pyramid": 5586,
      "pinched": 5587,
      "ptomaine": 5588,
      "pilgrimage": 5589,
      "pupil": 5590,
      "pardon": 5591,
      "plowed": 5592,
      "prowess": 5593,
      "papa": 5594,
      "rougher": 5595,
      "soothed": 5596,
      "skeleton": 5597,
      "smoke": 5598,
      "sifting": 5599,
      "scaring": 5600,
      "slicing": 5601,
      "snares": 5602,
      "twisted": 5603,
      "tentative": 5604,
      "tissue": 5605,
      "valleys": 5606,
      "virtue": 5607,
      "wandering": 5608,
      "wisdom": 5609,
      "wrenched": 5610,
      "heavens": 5611,
      "theatrical": 5612,
      "annoy": 5613,
      "annnulled": 5614,
      "incorporate": 5615,
      "influences": 5616,
      "indestructible": 5617,
      "reason": 5618,
      "rebelled": 5619,
      "religious": 5620,
      "reversed": 5621,
      "removal": 5622,
      "repletion": 5623,
      "requiring": 5624,
      "reputation": 5625,
      "reprinted": 5626,
      "relics": 5627,
      "refreshment": 5628,
      "reminiscent": 5629,
      "revising": 5630,
      "thirsty": 5631,
      "thumped": 5632,
      "atmosphere": 5633,
      "attainment": 5634,
      "assimilated": 5635,
      "erosions": 5636,
      "ingredients": 5637,
      "towel": 5638,
      "strokes": 5639,
      "sturdy": 5640,
      "staggering": 5641,
      "arrived": 5642,
      "encouraged": 5643,
      "enthusiastic": 5644,
      "enjoyed": 5645,
      "noticing": 5646,
      "nobility": 5647,
      "orchestra": 5648,
      "adjusted": 5649,
      "advantage": 5650,
      "methods": 5651,
      "identified": 5652,
      "behavior": 5653,
      "betrayal": 5654,
      "acrobatics": 5655,
      "acquired": 5656,
      "accomplished": 5657,
      "roams": 5658,
      "alternately": 5659,
      "albatross": 5660,
      "escaping": 5661,
      "espuela": 5662,
      "welts": 5663,
      "shouted": 5664,
      "shrugged": 5665,
      "shapes": 5666,
      "shuddering": 5667,
      "limitations": 5668,
      "lification": 5669,
      "unlocked": 5670,
      "unavoidable": 5671,
      "unendingly": 5672,
      "unbelievably": 5673,
      "unknotting": 5674,
      "undulation": 5675,
      "feminine": 5676,
      "challenges": 5677,
      "churning": 5678,
      "allegory": 5679,
      "vertebrae": 5680,
      "fortune": 5681,
      "solemnity": 5682,
      "irritation": 5683,
      "outfielder": 5684,
      "outgrowth": 5685,
      "coppery": 5686,
      "colonies": 5687,
      "coagulated": 5688,
      "moisture": 5689,
      "motorboats": 5690,
      "nearest": 5691,
      "ceremonial": 5692,
      "ambulance": 5693,
      "gelatinous": 5694,
      "splendid": 5695,
      "definitely": 5696,
      "decoration": 5697,
      "devote": 5698,
      "deceptive": 5699,
      "determination": 5700,
      "deterioration": 5701,
      "loggerheads": 5702,
      "loyalty": 5703,
      "sustenance": 5704,
      "tapered": 5705,
      "backswept": 5706,
      "strategy": 5707,
      "strangeness": 5708,
      "straggler": 5709,
      "politics": 5710,
      "position": 5711,
      "telephone": 5712,
      "period": 5713,
      "perfectly": 5714,
      "constellation": 5715,
      "conquer": 5716,
      "conscientiously": 5717,
      "condensed": 5718,
      "control": 5719,
      "contours": 5720,
      "consummate": 5721,
      "constantly": 5722,
      "hasizes": 5723,
      "plunging": 5724,
      "plummets": 5725,
      "expeditions": 5726,
      "explanatory": 5727,
      "extremity": 5728,
      "oversimplification": 5729,
      "intolerable": 5730,
      "affinity": 5731,
      "affects": 5732,
      "judging": 5733,
      "holidays": 5734,
      "mentioned": 5735,
      "indicates": 5736,
      "individual": 5737,
      "classroom": 5738,
      "foreshadowing": 5739,
      "hatchet": 5740,
      "longwinged": 5741,
      "longitudinally": 5742,
      "Interwoven": 5743,
      "prospect": 5744,
      "provokes": 5745,
      "procession": 5746,
      "crumbs": 5747,
      "shields": 5748,
      "restrictions": 5749,
      "digested": 5750,
      "diarrhoea": 5751,
      "pretentious": 5752,
      "preceded": 5753,
      "preoccupation": 5754,
      "sluggishly": 5755,
      "justifiable": 5756,
      "cartilage": 5757,
      "scattering": 5758,
      "discipline": 5759,
      "distinction": 5760,
      "discoloring": 5761,
      "freshening": 5762,
      "brooding": 5763,
      "surprisingly": 5764,
      "courtesy": 5765,
      "seriousness": 5766,
      "Coleridge": 5767,
      "civilization": 5768,
      "despairing": 5769,
      "imminent": 5770,
      "immoral": 5771,
      "immediacy": 5772,
      "immune": 5773,
      "imperceptible": 5774,
      "triumph": 5775,
      "Weekly": 5776,
      "icebergs": 5777,
      "particles": 5778,
      "particular": 5779,
      "sensitive": 5780,
      "submerged": 5781,
      "denouncement": 5782,
      "grocery": 5783,
      "minimum": 5784,
      "interpolations": 5785,
      "monologues": 5786,
      "privilege": 5787,
      "realizing": 5788,
      "supporting": 5789,
      "supports": 5790,
      "Tolstoi": 5791,
      "appreciate": 5792,
      "testified": 5793,
      "volunteer": 5794,
      "convulsively": 5795,
      "phosphorus": 5796,
      "fingernails": 5797,
      "involuntarily": 5798,
      "transferred": 5799,
      "ERNEST": 5800,
      "barracudas": 5801,
      "variety": 5802,
      "refrains": 5803,
      "considerably": 5804,
      "publishers": 5805,
      "Descriptions": 5806,
      "recognize": 5807,
      "Bohemian": 5808,
      "CAMPBELL": 5809,
      "automatically": 5810,
      "biographical": 5811,
      "emergency": 5812,
      "kerosene": 5813,
      "overemphasizes": 5814
    },
    "merges": [
      "h e",
      "t he",
      "a n",
      "i n",
      "an d",
      "i s",
      "r e",
      "t h",
      "o u",
      "a t",
      "a s",
      "e r",
      "o n",
      "e d",
      "in g",
      "t o",
      "o f",
      "l l",
      "i t",
      "s t",
      "a r",
      "l d",
      "e n",
      "n o",
      "o r",
      "l e",
      "g h",
      "a d",
      "h is",
      "m e",
      "w as",
      "i d",
      "s e",
      "gh t",
      "b e",
      "T he",
      "w i",
      "h i",
      "a c",
      "m an",
      "o w",
      "H e",
      "u t",
      "v e",
      "r o",
      "f is",
      "a l",
      "o ld",
      "e s",
      "th at",
      "w e",
      "a y",
      "l y",
      "fis h",
      "s a",
      "s h",
      "hi m",
      "ou ld",
      "wi th",
      "t i",
      "o o",
      "- -",
      "l i",
      "u n",
      "no t",
      "f e",
      "b o",
      "a g",
      "a in",
      "c h",
      "a ll",
      "k e",
      "v er",
      "h ad",
      "th ou",
      "f or",
      "s o",
      "i r",
      "h a",
      "r i",
      "u r",
      "sa id",
      "no w",
      "y ou",
      "en t",
      "l in",
      "ou t",
      "B ut",
      "c o",
      "m o",
      "n e",
      "c e",
      "thou ght",
      "on e",
      "the r",
      "ha ve",
      "h and",
      "a m",
      "a re",
      "i f",
      "w at",
      "we re",
      "d o",
      "i l",
      "lin e",
      "m u",
      "w ay",
      "ac k",
      "g e",
      "t er",
      "i ll",
      "i ght",
      "w he",
      "w h",
      "ar k",
      "ag ain",
      "s p",
      "ro m",
      "-- --",
      "d e",
      "oo k",
      "c ould",
      "f rom",
      "th ing",
      "as t",
      "the m",
      "re at",
      "the y",
      "I t",
      "u p",
      "ow n",
      "e p",
      "to o",
      "wat er",
      "c an",
      "t r",
      "bo y",
      "m p",
      "c a",
      "c k",
      "id e",
      "on g",
      "l o",
      "ar d",
      "i on",
      "s u",
      "w ould",
      "wi ll",
      "t a",
      "b ack",
      "he r",
      "oo d",
      "he d",
      "u ll",
      "d own",
      "m ing",
      "st r",
      "whe n",
      "n d",
      "ti me",
      "s k",
      "he ad",
      "g reat",
      "s s",
      "f t",
      "p e",
      "p o",
      "g o",
      "i g",
      "so me",
      "se e",
      "the n",
      "mu st",
      ", \"",
      "the re",
      "t e",
      "w or",
      "re d",
      "p er",
      "ad e",
      "sh ark",
      "l f",
      "w o",
      "The n",
      "b ut",
      "o ther",
      "c on",
      "ar t",
      "mo re",
      "a b",
      "a k",
      "l ow",
      "wh at",
      "o re",
      "p p",
      "d er",
      "s ide",
      "u e",
      "ou r",
      "b r",
      "fe e",
      "h as",
      "p l",
      "ver y",
      "d id",
      "ne w",
      "He ming",
      "co me",
      "if f",
      "Heming way",
      "e x",
      "o ver",
      "sh ould",
      "c le",
      "d ay",
      "l t",
      "in k",
      "er s",
      "se lf",
      "ac e",
      "b l",
      "t ur",
      "th is",
      "c t",
      "again st",
      "l ook",
      "in to",
      "re n",
      "ou gh",
      "st e",
      "m y",
      "t wo",
      "u s",
      "on ly",
      "se a",
      "a f",
      "j u",
      "k now",
      "r y",
      "s un",
      "it s",
      "bo at",
      "mu ch",
      "an t",
      "ou nd",
      "h o",
      "m a",
      "m en",
      "an y",
      "in d",
      "be en",
      "li ke",
      "---- ----",
      "e t",
      "p ull",
      "The y",
      "ge t",
      "g ood",
      "li ght",
      "c l",
      "f ore",
      "h at",
      "m ade",
      "r a",
      "the ir",
      "le ft",
      "sk iff",
      ". )",
      "Y ou",
      "b y",
      "e at",
      "k ill",
      "l ong",
      "t le",
      "v en",
      "ou d",
      "es s",
      "we ll",
      "m b",
      "sa w",
      "d ark",
      "i ve",
      "k new",
      "p le",
      "th ink",
      "r it",
      "ti on",
      "hand s",
      "fee l",
      "b le",
      "i c",
      "p s",
      "him self",
      "ir d",
      "wor k",
      "t ing",
      "ac h",
      "I n",
      "m ent",
      "q u",
      "u l",
      "th an",
      "at ion",
      "ab out",
      "tur n",
      "c ut",
      "f ast",
      "The re",
      "fe lt",
      "ri ght",
      "wh o",
      "? \"",
      "N ow",
      "b re",
      "b ig",
      "w rit",
      "is h",
      "ca me",
      "a v",
      "d re",
      "l p",
      "w hi",
      "at e",
      "b ird",
      "p ro",
      "u re",
      "be t",
      "whe re",
      "ste ad",
      "N o",
      "a th",
      "p ut",
      "w ent",
      "y e",
      "re ad",
      "st ill",
      "en d",
      "le ep",
      "fis her",
      "c he",
      "h un",
      "h ook",
      "s w",
      "th r",
      "ar s",
      "un der",
      "thou gh",
      "look ed",
      "b a",
      "u se",
      "v ed",
      "it y",
      "be fore",
      "man y",
      "sa il",
      "c r",
      "p t",
      "p ed",
      "s low",
      "ou s",
      "all y",
      "you r",
      "sp e",
      "af ter",
      "b ow",
      "c ir",
      "c hed",
      "i ck",
      "n ight",
      "it e",
      "st er",
      "le t",
      "al oud",
      "pp ed",
      "ma ke",
      ", ”",
      "h ar",
      "k ed",
      "s to",
      "w ard",
      "ri ed",
      "mb er",
      "l it",
      "m s",
      "s i",
      "s hi",
      "in t",
      "no r",
      "ro ss",
      "ir st",
      "f ace",
      "s m",
      "u ck",
      "re st",
      "too k",
      "thr ough",
      "A nd",
      "I f",
      "d i",
      "p re",
      "t en",
      "time s",
      "h it",
      "u b",
      "or t",
      "ta ke",
      "f irst",
      "h ow",
      "s l",
      "v ing",
      "of f",
      "no thing",
      "li fe",
      "mo st",
      "ne ver",
      "tr y",
      "ta il",
      "a ir",
      "c ur",
      "e y",
      "f in",
      "f ar",
      "g th",
      "h in",
      "i ly",
      "z e",
      "or n",
      "le ss",
      "ac ross",
      "sh ow",
      "ke ep",
      "dre am",
      "lp hin",
      "slow ly",
      "ster n",
      "lit tle",
      "a w",
      "b ad",
      "c lo",
      "e ven",
      "e ach",
      "o p",
      "r ow",
      "s in",
      "s leep",
      "t re",
      "he ld",
      "st art",
      "se t",
      "ca use",
      "some thing",
      "ju st",
      "ju mp",
      ". (",
      "A f",
      "S o",
      "a ther",
      "c ar",
      "f ly",
      "f ight",
      "h ard",
      "r is",
      "an other",
      "ti l",
      "ha ps",
      "wat ched",
      "do lphin",
      "str ong",
      "shark s",
      "W he",
      "e very",
      "l uck",
      "s c",
      "w ant",
      "st ren",
      "ve l",
      "un til",
      "po int",
      "br ing",
      "-------- --------",
      "sm all",
      "ey es",
      "1 9",
      "W hat",
      "a way",
      "b ed",
      "c or",
      "c are",
      "d is",
      "f re",
      "an k",
      "in e",
      "en ce",
      "co mp",
      "ak ing",
      "cle ar",
      "ren t",
      "start ed",
      "H is",
      "b ro",
      "d ro",
      "e ver",
      "g one",
      "i o",
      "k n",
      "l as",
      "p ain",
      "w a",
      "w ish",
      "he av",
      "an g",
      "re me",
      "be cause",
      "way s",
      "de ep",
      "ba it",
      "cr am",
      "op en",
      "fly ing",
      "Whe n",
      "stren gth",
      "T hat",
      "f ull",
      "i fe",
      "m ast",
      "r u",
      "s he",
      "s ed",
      "s ur",
      "is t",
      "ou ght",
      "as e",
      "ar m",
      "al most",
      "ag e",
      "lin es",
      "co il",
      "thing s",
      "po on",
      "go ing",
      "whi ch",
      "har poon",
      "a il",
      "c reat",
      "f ul",
      "h u",
      "h ur",
      "m ou",
      "n ess",
      "o d",
      "o ple",
      "p r",
      "t ain",
      "w ood",
      "an ce",
      "at ed",
      "ar ound",
      "be g",
      "ac t",
      "al ways",
      "sp o",
      "should ers",
      "pull ed",
      "cur rent",
      "kn ife",
      "heav y",
      "a p",
      "b ook",
      "c our",
      "h old",
      "h our",
      "j aw",
      "m at",
      "t un",
      "w ing",
      "an ge",
      "ar ly",
      "le an",
      "hi gh",
      "ay be",
      "with out",
      "co m",
      "te ll",
      "feel ing",
      "bet ter",
      "fisher man",
      "fisher men",
      "T his",
      "a ve",
      "c ed",
      "c es",
      "l and",
      "l at",
      "m ar",
      "o ce",
      "p i",
      "p as",
      "s ay",
      "t y",
      "u st",
      "is e",
      "to r",
      "st ay",
      "al ong",
      "do es",
      "str a",
      "pe ople",
      "cl ub",
      "whi le",
      "cir cle",
      "si mp",
      "sur face",
      "oce an",
      "c al",
      "c all",
      "d r",
      "e ze",
      "j e",
      "p art",
      "s er",
      "s wi",
      "s al",
      "v o",
      "he re",
      "th re",
      "as ked",
      "ll ow",
      "se en",
      "ve s",
      "al f",
      "we ight",
      "li c",
      "ch ar",
      "ke t",
      "co ming",
      "mo ved",
      "de ath",
      "per i",
      "ex peri",
      "bre eze",
      "writ ing",
      "reme mber",
      "jaw s",
      "stra ight",
      "C o",
      "F or",
      "M an",
      "b u",
      "b all",
      "d y",
      "d ri",
      "f ing",
      "f le",
      "h alf",
      "k en",
      "l a",
      "l ed",
      "r ing",
      "s ard",
      "t ried",
      "w ind",
      "id es",
      "ac ter",
      "ac hed",
      "we en",
      "ti ll",
      "bo th",
      "ha pp",
      "can not",
      "tr u",
      "su re",
      "str ange",
      "sk ill",
      "ex ce",
      "turn ed",
      "stead y",
      "stead ily",
      "sw am",
      "sto ry",
      "Af ter",
      "char acter",
      "H ow",
      "a ut",
      "a per",
      "b one",
      "e f",
      "g r",
      "m i",
      "m ight",
      "m orn",
      "o ars",
      "p ur",
      "s me",
      "t ed",
      "w on",
      "w ide",
      "the se",
      "in n",
      "on s",
      "on to",
      "on ce",
      "to ge",
      "st ri",
      "en ough",
      "me at",
      "be aut",
      "ro se",
      "ro pe",
      "al one",
      "sh a",
      "ti red",
      "ag o",
      "ne ed",
      "con f",
      "us ed",
      "bet ween",
      "hook ed",
      "sin ce",
      "tre ac",
      "So me",
      "every thing",
      "mou th",
      "tun a",
      "lean ed",
      "morn ing",
      "sme ll",
      "toge ther",
      "S an",
      "b ase",
      "c old",
      "c tion",
      "e a",
      "f oo",
      "h y",
      "s li",
      "er ing",
      "ar y",
      "me an",
      "be at",
      "un g",
      "ag g",
      "ch ing",
      "ch oo",
      "for m",
      "ent ly",
      "mo ving",
      "ge st",
      "wh ite",
      "su ch",
      "ig n",
      "pl ay",
      "bl ue",
      "tur tle",
      "ho pe",
      "read y",
      "cir cl",
      "cor d",
      "full y",
      "coil s",
      "hur t",
      "cour se",
      "thre e",
      "pur ple",
      "treac her",
      ") .",
      "D o",
      "M aybe",
      "O n",
      "O ld",
      "P er",
      "S ea",
      "c i",
      "d es",
      "e as",
      "f f",
      "f ound",
      "g ive",
      "i m",
      "i mp",
      "l oo",
      "o m",
      "s choo",
      "t al",
      "t ri",
      "in es",
      "no on",
      "no vel",
      "ro ad",
      "mo on",
      "tr ue",
      "lo ve",
      "str ain",
      "ft ed",
      "per haps",
      "br ought",
      "fee t",
      "pl ace",
      "day s",
      "ye llow",
      "hun g",
      "show ed",
      "fre sh",
      "je ct",
      "swi m",
      "sard ines",
      "till er",
      "won der",
      "base ball",
      "schoo l",
      "\" (",
      "G od",
      "T h",
      "W e",
      "b or",
      "c ess",
      "d red",
      "e l",
      "e ight",
      "e ast",
      "e arly",
      "f ri",
      "g af",
      "i es",
      "i ce",
      "l ay",
      "l ast",
      "p at",
      "p ar",
      "q ue",
      "r ace",
      "s en",
      "s we",
      "u lf",
      "w ar",
      "is hed",
      "on d",
      "to ld",
      "ac ed",
      "sh ack",
      "ti ago",
      "so l",
      "so on",
      "sp ur",
      "su b",
      "su g",
      "sk y",
      "ab le",
      "should er",
      "cle an",
      "boat s",
      "ma le",
      "writ er",
      "hun dred",
      "clo se",
      "las h",
      "hour s",
      "mar lin",
      "cal m",
      "call ed",
      "tru ly",
      "beaut if",
      "San tiago",
      "foo t",
      "circl ing",
      "Per haps",
      "gaf f",
      "E at",
      "b ull",
      "d en",
      "e st",
      "e ch",
      "f ath",
      "f ather",
      "g ro",
      "j er",
      "m in",
      "m ed",
      "m ay",
      "o ar",
      "o se",
      "p ick",
      "s it",
      "s or",
      "u lt",
      "x t",
      "in ter",
      "re en",
      "re ached",
      "to ward",
      "it ed",
      "ar n",
      "en ed",
      "le g",
      "al an",
      "al though",
      "ti ght",
      "li ons",
      "fe ct",
      "bo dy",
      "mo ment",
      "sp read",
      "ion s",
      "ta ken",
      "wor d",
      "bl ood",
      "know s",
      "cl oud",
      "qu i",
      "ure s",
      "rest ed",
      "sl ant",
      "sc ent",
      "beg an",
      "exce pt",
      "character s",
      "agg io",
      "treacher y",
      "D i",
      "D on",
      "J ust",
      "M aggio",
      "T er",
      "a bo",
      "b it",
      "c re",
      "c ent",
      "d one",
      "e ye",
      "h ind",
      "k ne",
      "l or",
      "m on",
      "p ri",
      "s il",
      "s ack",
      "t s",
      "u ght",
      "he ard",
      "he lp",
      "re al",
      "re ally",
      "as leep",
      "st and",
      "st ep",
      "ad d",
      "be li",
      "be hind",
      "we ather",
      "sa me",
      "ch o",
      "for ward",
      "mo ve",
      "ne xt",
      "de ad",
      "lo ved",
      "su ff",
      "ta ble",
      "other s",
      "pp ing",
      "pl ank",
      "come s",
      "bl ade",
      "ho me",
      "kill ed",
      "bre ak",
      "bird s",
      "che s",
      "sw ung",
      "spe ech",
      "bad ly",
      "car ried",
      "fight ing",
      "bro ther",
      "cram p",
      "hu ge",
      "book s",
      "along side",
      "simp le",
      "ser ve",
      "sal t",
      "experi ence",
      "Co me",
      "fing ers",
      "conf id",
      "Some times",
      "tal k",
      "fri end",
      "sug gest",
      "beautif ul",
      "sor ry",
      "Di Maggio",
      "Ter race",
      "beli e",
      "A n",
      "B e",
      "C an",
      "C ar",
      "H av",
      "L et",
      "S t",
      "Y es",
      "a me",
      "a ke",
      "c er",
      "c of",
      "d den",
      "e k",
      "f ind",
      "g g",
      "g ain",
      "g ently",
      "i ous",
      "m ak",
      "p an",
      "p es",
      "p ound",
      "p ho",
      "r un",
      "s ent",
      "s up",
      "t reat",
      "u es",
      "w ed",
      "w all",
      "an a",
      "re serve",
      "to day",
      "st ars",
      "ar p",
      "le arn",
      "ro ll",
      "al ive",
      "we st",
      "fish ing",
      "sh ort",
      "sh arp",
      "fe ar",
      "ri ca",
      "ne cess",
      "ne gro",
      "de c",
      "tr ous",
      "ck s",
      "su dden",
      "pl an",
      "ct ed",
      "look ing",
      "us hed",
      "pull ing",
      "eat ing",
      "work ed",
      "qu ick",
      "dre w",
      "ba its",
      "sail ed",
      "spe ed",
      "jump ed",
      "Af rica",
      "luck y",
      "care fully",
      "dro ve",
      "dro pped",
      "cram ped",
      "pi e",
      "swim ming",
      "abo ve",
      "sil ver",
      "Hav ana",
      "cof fee",
      "mak es",
      "trous ers",
      ". \"",
      "G ulf",
      "M y",
      "O ne",
      "T o",
      "a pp",
      "b ur",
      "b ill",
      "b orn",
      "c at",
      "d on",
      "d if",
      "d iff",
      "e w",
      "f ur",
      "f our",
      "f ive",
      "f lat",
      "g low",
      "g reen",
      "i ther",
      "k ing",
      "k ind",
      "o c",
      "o s",
      "o ms",
      "p or",
      "p ti",
      "s ing",
      "s ides",
      "t in",
      "he s",
      "he art",
      "in side",
      "is on",
      "th ose",
      "on es",
      "st re",
      "st ion",
      "en ces",
      "no ble",
      "le s",
      "se s",
      "hi g",
      "ve red",
      "al s",
      "li ves",
      "fe ed",
      "bo t",
      "ain t",
      "ke pt",
      "for ty",
      "ur ing",
      "co lor",
      "mo tion",
      "are d",
      "sp aper",
      "de lic",
      "some times",
      "te st",
      "new spaper",
      "light ly",
      "ra w",
      "kill ing",
      "long er",
      "ic ult",
      "work ing",
      "bre aking",
      "ye ars",
      "shi p",
      "ris ing",
      "creat ures",
      "wing s",
      "lat er",
      "pas sed",
      "vo l",
      "stri pes",
      "turtle s",
      "eight y",
      "que stion",
      "bull fighting",
      "fath oms",
      "pick ed",
      "cloud s",
      "suff ering",
      "dif fe",
      "diff icult",
      "delic ate",
      "A l",
      "A s",
      "A ll",
      "D e",
      "E ach",
      "W ar",
      "W hy",
      "a head",
      "b ing",
      "b low",
      "c u",
      "c li",
      "c ry",
      "e mp",
      "f lo",
      "g es",
      "h ore",
      "i th",
      "l er",
      "l en",
      "m or",
      "m il",
      "m ind",
      "m aking",
      "n g",
      "n u",
      "p al",
      "p aper",
      "s on",
      "s le",
      "t ou",
      "t on",
      "t led",
      "v i",
      "v al",
      "an ket",
      "in tell",
      "in cre",
      "re fle",
      "th s",
      "er i",
      "ll y",
      "st u",
      "st ick",
      "ar ms",
      "le te",
      "se l",
      "be y",
      "be an",
      "be ing",
      "be low",
      "be side",
      "ac tion",
      "man ag",
      "we ed",
      "sh ad",
      "sh ut",
      "ti c",
      "li es",
      "li fted",
      "all ow",
      "ver ing",
      "you ng",
      "ne arly",
      "wat ching",
      "do or",
      "ter n",
      "ill s",
      "tr a",
      "tr ade",
      "tr ail",
      "ca ught",
      "str u",
      "go t",
      "wor th",
      "con v",
      "ak ed",
      "br ain",
      "br own",
      "ex act",
      "bl anket",
      "ct ure",
      "any thing",
      "get ting",
      "light s",
      "ra ther",
      "ation s",
      "cut ting",
      "pro ject",
      "hun ting",
      "under stand",
      "har bor",
      "nor th",
      "clo sed",
      "row ed",
      "set tled",
      "car ry",
      "want ed",
      "19 5",
      "las hed",
      "spo ke",
      "mat ter",
      "com for",
      "stay ed",
      "ef fect",
      "sol id",
      "leg s",
      "qui et",
      "step ped",
      "brother s",
      "belie ve",
      "pound s",
      "pho sp",
      "necess ary",
      "bot tle",
      "sle pt",
      "intell ig",
      "manag er",
      "A t",
      "B ak",
      "F ish",
      "M any",
      "M ake",
      "O r",
      "S tre",
      "W or",
      "W ho",
      "Y an",
      "b are",
      "c ra",
      "d u",
      "d der",
      "e red",
      "e ither",
      "f ill",
      "f aint",
      "g old",
      "g un",
      "g ri",
      "g ue",
      "g ave",
      "h or",
      "i ble",
      "l ate",
      "m it",
      "m id",
      "m al",
      "m ain",
      "m ine",
      "m aybe",
      "n at",
      "o k",
      "p h",
      "p un",
      "p ushed",
      "r ub",
      "s and",
      "s ight",
      "s ion",
      "t it",
      "u al",
      "u de",
      "u mb",
      "v io",
      "w w",
      "re s",
      "re ve",
      "th ird",
      "ou n",
      "as s",
      "as ed",
      "ed ge",
      "ll s",
      "it self",
      "ar ch",
      "en ti",
      "no se",
      "or der",
      "id ed",
      "be st",
      "wi re",
      "wi ld",
      "ac ti",
      "al ready",
      "sh o",
      "sh ore",
      "li ve",
      "fe ll",
      "bo x",
      "ke es",
      "ri es",
      "ent s",
      "ce pti",
      "if i",
      "ge ar",
      "de p",
      "lo t",
      "lo se",
      "head ed",
      "ss ed",
      "po ison",
      "wo ke",
      "con d",
      "bl ack",
      "any way",
      "-------- --",
      "ra is",
      "kill s",
      "ic al",
      "qu ite",
      "turn s",
      "sl id",
      "try ing",
      "fin s",
      "dream ed",
      "---------------- ----------------",
      "19 3",
      "care ful",
      "comp lete",
      "wa ke",
      "ang er",
      "she et",
      "pr ay",
      "hold ing",
      "dr ag",
      "dr ink",
      "fing er",
      "stri ps",
      "sha pe",
      "eas y",
      "sub ject",
      "alan os",
      "bit t",
      "add ed",
      "treat ment",
      "roll ed",
      "hig her",
      "bey ond",
      "shad ow",
      "exact ly",
      "phosp hore",
      "Bak er",
      "Stre am",
      "Yan kees",
      "-------------------------------- ----------",
      ". .",
      "B ro",
      "C i",
      "G alanos",
      "H E",
      "M ay",
      "M ary",
      "P ed",
      "S ep",
      "S pan",
      "W ith",
      "b er",
      "b on",
      "b ac",
      "b bean",
      "c ri",
      "c tor",
      "c oun",
      "d ent",
      "d ry",
      "d ign",
      "d anger",
      "e ag",
      "e motion",
      "f i",
      "f l",
      "f ood",
      "f av",
      "f ail",
      "g i",
      "g ed",
      "g ut",
      "i z",
      "i an",
      "i tor",
      "i bbean",
      "k s",
      "l one",
      "m is",
      "n a",
      "n tain",
      "p ay",
      "p rom",
      "p hy",
      "r t",
      "r an",
      "r ough",
      "s ad",
      "s ort",
      "s ign",
      "t ast",
      "u so",
      "w al",
      "w ise",
      "y ed",
      "he ar",
      "the me",
      "an im",
      "in ed",
      "in te",
      "in ess",
      "in ally",
      "in vol",
      "is ion",
      "re sp",
      "re spe",
      "th umb",
      "at ing",
      "at ten",
      "to p",
      "st up",
      "no ise",
      "le ave",
      "me ant",
      "was hed",
      "se cond",
      "be er",
      "be ac",
      "be ast",
      "be red",
      "be lly",
      "ac ing",
      "ac ce",
      "ro om",
      "ly n",
      "ti ed",
      "ti ce",
      "li ked",
      "bo ard",
      "ch air",
      "ch ang",
      "for t",
      "ri ce",
      "ri can",
      "ent y",
      "co vered",
      "ne t",
      "ne ck",
      "hand le",
      "wat ch",
      "sp ring",
      "de st",
      "them sel",
      "ide a",
      "lo st",
      "lo ss",
      "great est",
      "ss ible",
      "go s",
      "go es",
      "te e",
      "te mber",
      "wor ld",
      "low er",
      "ue gos",
      "br aced",
      "ex am",
      "ren ce",
      "ste er",
      "af ra",
      "fore ver",
      "ra ph",
      "eat en",
      "dark ness",
      "ic tion",
      "ment s",
      "qu al",
      "writ e",
      "writ ten",
      "ish ment",
      "No tice",
      "read er",
      "che wed",
      "sw ing",
      "sw allow",
      "your self",
      "sto ries",
      "si ze",
      "shi vering",
      "rest ing",
      "di e",
      "di p",
      "pre s",
      "dream s",
      "even ing",
      "ris e",
      "19 4",
      "fre e",
      "wa it",
      "wa ited",
      "ru dder",
      "coil ed",
      "creat ing",
      "hur rican",
      "mou ntain",
      "spo ts",
      "com men",
      "pas sa",
      "simp lic",
      "bu y",
      "dri ft",
      "dri ving",
      "fle sh",
      "la id",
      "happ y",
      "happ en",
      "After noon",
      "ef fort",
      "inn er",
      "inn ing",
      "sha ped",
      "mean s",
      "beat en",
      "On ce",
      "des per",
      "imp ort",
      "loo se",
      "hung ry",
      "bor row",
      "east ward",
      "sen se",
      "swe et",
      "sol ut",
      "lash ing",
      "jer k",
      "kne es",
      "sack s",
      "confid ence",
      "Car ibbean",
      "cer tain",
      "gain ed",
      "quick ly",
      "pie ce",
      "bur n",
      "diffe rence",
      "De ath",
      "len gth",
      "nu mber",
      "tou ch",
      "project ing",
      "intellig ent",
      "ok lyn",
      "Bro oklyn",
      "Sep tember",
      "Span ish",
      "bac ore",
      "dign ity",
      "fav or",
      "atten tion",
      "stup id",
      "beac hes",
      "themsel ves",
      "afra id",
      "simplic ity",
      "? ”",
      "C le",
      "E very",
      "E ven",
      "H ail",
      "J o",
      "K e",
      "L eag",
      "N ew",
      "O f",
      "O ther",
      "P hi",
      "R i",
      "S is",
      "T e",
      "T wo",
      "Y or",
      "a le",
      "a id",
      "b at",
      "b ul",
      "b right",
      "c ast",
      "c ross",
      "d s",
      "d or",
      "d uring",
      "e v",
      "f a",
      "f it",
      "f il",
      "f ought",
      "g l",
      "g u",
      "g er",
      "g ent",
      "g ame",
      "g ills",
      "h ou",
      "i to",
      "i ke",
      "l ing",
      "l ur",
      "l ack",
      "l ation",
      "m ag",
      "m ark",
      "m ited",
      "m bered",
      "n er",
      "n ame",
      "o st",
      "p u",
      "p ing",
      "p ow",
      "p are",
      "p tion",
      "p ort",
      "r or",
      "s ou",
      "s at",
      "s too",
      "s ound",
      "s qu",
      "s word",
      "t ly",
      "u m",
      "u su",
      "w r",
      "w id",
      "w ra",
      "z y",
      "he el",
      "in ce",
      "in stead",
      "re fe",
      "re su",
      "re pe",
      "re por",
      "re lation",
      "th us",
      "at ive",
      "as k",
      "to wing",
      "ll ent",
      "it ies",
      "st y",
      "st iff",
      "ar ing",
      "en e",
      "en se",
      "no ti",
      "le ad",
      "le ag",
      "ad mi",
      "me mber",
      "se as",
      "be ach",
      "wi ce",
      "al bacore",
      "we ek",
      "ti cle",
      "oo th",
      "li ct",
      "li mited",
      "fe at",
      "fe male",
      "ch ance",
      "ver s",
      "am ents",
      "do ing",
      "il t",
      "sp at",
      "tr an",
      "mp t",
      "ck ed",
      "ck ing",
      "lo s",
      "su c",
      "ta ut",
      "ta king",
      "back bone",
      "str uck",
      "time less",
      "head s",
      "ft s",
      "pe ctor",
      "po e",
      "po ssible",
      "see ms",
      "te am",
      "per son",
      "per cepti",
      "wo man",
      "but t",
      "con side",
      "con tin",
      "con test",
      "art ist",
      "ab ly",
      "br a",
      "br is",
      "pl aced",
      "did n",
      "day light",
      "ren ces",
      "any one",
      "et s",
      "ven der",
      "ple as",
      "ble ed",
      "right ed",
      "who le",
      "ate ly",
      "No t",
      "ye ster",
      "end ed",
      "end ure",
      "thr ow",
      "spe ak",
      "after noon",
      "ward s",
      "si x",
      "shi rt",
      "sm ooth",
      "pre sent",
      "ten sion",
      "fin e",
      "show ing",
      "keep s",
      "set s",
      "jump ing",
      "ather s",
      "ris en",
      "every one",
      "sc ence",
      "19 1",
      "dis cu",
      "bro ke",
      "bro ken",
      "wa le",
      "reme mbered",
      "open ed",
      "hu mil",
      "pr ide",
      "tain ed",
      "beg inning",
      "act s",
      "mat eri",
      "ust ed",
      "club bed",
      "club bing",
      "dr ank",
      "experi ences",
      "bu ilt",
      "la vender",
      "happ ened",
      "skill fully",
      "exce llent",
      "gr ay",
      "mi le",
      "conf lict",
      "smell ed",
      "sli p",
      "sli pped",
      "play ed",
      "des cri",
      "eas ily",
      "loo sen",
      "Th ink",
      "Th ank",
      "pat ches",
      "swe at",
      "jer ked",
      "inter pre",
      "cent r",
      "mon ths",
      "cho ice",
      "plank ing",
      "confid ent",
      "suggest ion",
      "An y",
      "Car los",
      "St ar",
      "gg ed",
      "dec ided",
      "sudden ly",
      "pie ces",
      "cat ch",
      "fur ther",
      "fur led",
      "oc cur",
      "Al so",
      "blow ing",
      "cry ing",
      "emp has",
      "pal m",
      "vi ew",
      "val ues",
      "refle ction",
      "worth y",
      "conv ince",
      "comfor table",
      "Wor ld",
      "gun wale",
      "tit ude",
      "vio l",
      "reve al",
      "dep th",
      "subject s",
      "phosphore scence",
      "bon ito",
      "gi ven",
      "phy s",
      "wal ked",
      "respe ct",
      "beast s",
      "acce pt",
      "tee th",
      "exam ple",
      "swing ing",
      "pres sure",
      "hurrican e",
      "mountain s",
      "commen ced",
      "passa ges",
      "Ke ep",
      "Sis ler",
      "Te ll",
      "Yor k",
      "fil aments",
      "hou se",
      "lur ch",
      "pow er",
      "resu lt",
      "noti ced",
      "conside red",
      "yester day",
      "humil ity",
      "A N",
      "A R",
      "A m",
      "B es",
      "C u",
      "C er",
      "E R",
      "F rom",
      "F irst",
      "F inally",
      "F athers",
      "G i",
      "G o",
      "G ood",
      "G reen",
      "H o",
      "H ave",
      "H ills",
      "I N",
      "L u",
      "M ar",
      "M ak",
      "O ur",
      "P e",
      "P ort",
      "Q ue",
      "R e",
      "R est",
      "S he",
      "S pain",
      "S till",
      "T i",
      "T om",
      "T HE",
      "V ir",
      "Y et",
      "a z",
      "b ar",
      "b ly",
      "b ub",
      "b ought",
      "c n",
      "c ti",
      "c her",
      "c ity",
      "c orn",
      "c ket",
      "c ass",
      "d ou",
      "d le",
      "d am",
      "d ra",
      "d ried",
      "e con",
      "f o",
      "f ac",
      "f un",
      "f all",
      "f ir",
      "f if",
      "f ig",
      "f uegos",
      "f iction",
      "g a",
      "g y",
      "g in",
      "g ers",
      "g ulf",
      "i gh",
      "j o",
      "j or",
      "k es",
      "k not",
      "l s",
      "l ade",
      "l ang",
      "m er",
      "m ir",
      "m one",
      "n t",
      "n our",
      "o gue",
      "p ris",
      "r ad",
      "r am",
      "r ms",
      "s of",
      "s old",
      "s ca",
      "s lit",
      "t ar",
      "t ro",
      "t ack",
      "t our",
      "t ough",
      "t ached",
      "u ed",
      "u ally",
      "u age",
      "u gue",
      "v a",
      "v ar",
      "v ill",
      "v ise",
      "w art",
      "w ound",
      "w aking",
      "w arm",
      "w ished",
      "w ks",
      "y the",
      "y al",
      "y ard",
      "y et",
      "收 集",
      "整 理",
      "萄 ww",
      "葡 萄ww",
      "西 葡萄ww",
      "an as",
      "an ic",
      "in c",
      "in s",
      "in er",
      "in al",
      "in ated",
      "is m",
      "is land",
      "re f",
      "re g",
      "re es",
      "re ss",
      "re ct",
      "re turn",
      "re solut",
      "th in",
      "th wart",
      "at titude",
      "as h",
      "as hed",
      "as tern",
      "er y",
      "ed itor",
      "ing ly",
      "st ing",
      "st ic",
      "ar ter",
      "ar ticle",
      "en c",
      "en fuegos",
      "no ose",
      "or ig",
      "or row",
      "le ast",
      "le ase",
      "me mor",
      "was h",
      "se ll",
      "se es",
      "se ven",
      "se arch",
      "be l",
      "be come",
      "The se",
      "wi fe",
      "wi ped",
      "hi a",
      "hi lls",
      "ro yed",
      "fis hed",
      "al ogue",
      "old er",
      "es pe",
      "we t",
      "we ig",
      "sh ri",
      "sh own",
      "sh ade",
      "sh aking",
      "ti ring",
      "li ved",
      "li ving",
      "un ity",
      "un cramp",
      "un stepped",
      "not ed",
      "fe w",
      "ag ed",
      "ag raph",
      "ain ed",
      "ch op",
      "thou sand",
      "for ce",
      "ha wks",
      "ri g",
      "ri co",
      "ri gged",
      "ur ance",
      "lin ess",
      "out side",
      "co ast",
      "mo ther",
      "hand ling",
      "am ong",
      "are nt",
      "ter y",
      "ter min",
      "whe ther",
      "de f",
      "de ck",
      "de stru",
      "can s",
      "mp s",
      "ca p",
      "ca pt",
      "ta ught",
      "sk in",
      "sk inn",
      "pe ct",
      "po st",
      "po se",
      "some one",
      "te en",
      "te red",
      "te mpt",
      "but che",
      "con s",
      "con tri",
      "con centr",
      "ue l",
      "has n",
      "pl ac",
      "pl enty",
      "ex pl",
      "over board",
      "should n",
      "bl er",
      "ste al",
      "ste ering",
      "ste ered",
      "my ster",
      "know n",
      "know ing",
      "sun set",
      "ant s",
      "ho t",
      "ho ped",
      "ho ist",
      "ma jor",
      "any more",
      "get s",
      "cl aw",
      "ven ess",
      "think ing",
      "ic s",
      "qu ently",
      "qu arter",
      "than k",
      "who se",
      "bre a",
      "av ing",
      "dre ssed",
      "lp hia",
      "pro v",
      "pro per",
      "pro du",
      "bet tor",
      "No thing",
      "No bel",
      "put ting",
      "ye ar",
      "read ers",
      "end s",
      "end urance",
      "che er",
      "che st",
      "che wing",
      "che ek",
      "hun ter",
      "sail ing",
      "cr uel",
      "spe ar",
      "ick ed",
      "ite cture",
      "sto pped",
      "shi fted",
      "di es",
      "di men",
      "di alogue",
      "pre par",
      "pre pare",
      "how ever",
      "air plan",
      "fin ally",
      "show s",
      "dream ing",
      "clo ck",
      "row ing",
      "sleep ing",
      "jump s",
      "car cass",
      "hard er",
      "hard ly",
      "sc ythe",
      "bring s",
      "bring ing",
      "fre quently",
      "comp ar",
      "comp any",
      "clear ly",
      "bro ad",
      "bait ed",
      "cram ps",
      "ru m",
      "ru sh",
      "ru ined",
      "she ath",
      "ist s",
      "arm ed",
      "creat e",
      "creat ive",
      "hu mi",
      "ap pe",
      "cour age",
      "mat ch",
      "lean ing",
      "mar ket",
      "pi vo",
      "pi cture",
      "pas s",
      "swi r",
      "llow ed",
      "dri fted",
      "led ge",
      "sard ine",
      "tru th",
      "gr ace",
      "beaut y",
      "sha ft",
      "need ed",
      "mean ing",
      "play er",
      "treacher ous",
      "ci ent",
      "ci ally",
      "tri ck",
      "tri cks",
      "novel s",
      "hung er",
      "school s",
      "Th ough",
      "el se",
      "pat ched",
      "par agraph",
      "fath om",
      "min ut",
      "med i",
      "sit u",
      "sit ting",
      "word s",
      "slant ing",
      "pri ze",
      "add s",
      "move ment",
      "plank ton",
      "friend s",
      "suggest ed",
      "An cient",
      "Be cause",
      "gain ing",
      "ious ly",
      "pan ic",
      "sup p",
      "wall s",
      "west world",
      "app arent",
      "oc c",
      "tin y",
      "stre am",
      "newspaper s",
      "diffe rent",
      "delicate ly",
      "cli mb",
      "cli cking",
      "flo ated",
      "ton ight",
      "incre ased",
      "refle cted",
      "stu dy",
      "stu ff",
      "tic ul",
      "tra vel",
      "understand ing",
      "north west",
      "quiet ly",
      "cra zy",
      "cra fts",
      "fill ets",
      "gold en",
      "gri pped",
      "hor ses",
      "mid dle",
      "mal a",
      "pun ishment",
      "rub bed",
      "arch itecture",
      "acti v",
      "sho vel",
      "rais ed",
      "rais ing",
      "pray ers",
      "Ci enfuegos",
      "Mary s",
      "Ped rico",
      "dent uso",
      "iz ed",
      "lone ly",
      "tast e",
      "theme s",
      "anim als",
      "resp ond",
      "chang ed",
      "dest royed",
      "import ant",
      "favor ite",
      "Leag ue",
      "Phi lade",
      "dor sal",
      "gl are",
      "gent le",
      "mag az",
      "mark s",
      "pu bl",
      "sou th",
      "stoo d",
      "usu ally",
      "wr ong",
      "wra pped",
      "repor ter",
      "sty le",
      "admi res",
      "pector al",
      "poe try",
      "contin ued",
      "bris a",
      "pleas ant",
      "smooth ly",
      "discu ss",
      "materi al",
      "descri ption",
      "occur rences",
      "emphas is",
      "viol ent",
      "phys ical",
      "Bes ides",
      "Cu ba",
      "Cer tain",
      "Gi ants",
      "Lu que",
      "Mar iner",
      "Mak o",
      "Port ugue",
      "Re member",
      "Tom orrow",
      "Vir gin",
      "bub ble",
      "cn 收集",
      "corn er",
      "fir m",
      "lang uage",
      "mir ror",
      "mone y",
      "pris ms",
      "rad io",
      "sof tly",
      "vill age",
      "西葡萄ww w",
      "resolut ion",
      "memor ies",
      "espe cially",
      "weig hed",
      "skinn ed",
      "butche red",
      "contri but",
      "bettor s",
      "airplan e",
      "humi li",
      "crafts man",
      "Philade lphia",
      "magaz ine",
      "Portugue se",
      "cn收集 整理",
      "0 0",
      "1 3",
      "1 8",
      "2 9",
      "7 2",
      "A Y",
      "A y",
      "A re",
      "A rms",
      "B ed",
      "B ad",
      "B ack",
      "B ig",
      "B et",
      "B ey",
      "B less",
      "B ring",
      "B ost",
      "C h",
      "C as",
      "C hi",
      "C ould",
      "C inc",
      "D r",
      "D u",
      "D es",
      "D ent",
      "D et",
      "D ick",
      "D od",
      "D uring",
      "E l",
      "E u",
      "F are",
      "G W",
      "G u",
      "G on",
      "G et",
      "G raw",
      "H old",
      "I I",
      "I s",
      "I nd",
      "I sl",
      "J es",
      "L ou",
      "L ast",
      "L ike",
      "M c",
      "M ine",
      "M ike",
      "M ost",
      "M IN",
      "N or",
      "N ever",
      "O ft",
      "P ull",
      "P lease",
      "S h",
      "S ar",
      "S un",
      "S leep",
      "S aint",
      "T O",
      "T ig",
      "T ho",
      "T wice",
      "U n",
      "V ery",
      "a ven",
      "b v",
      "b an",
      "b as",
      "b al",
      "b oo",
      "b us",
      "b ang",
      "b alan",
      "b ones",
      "b lot",
      "b ably",
      "c ook",
      "c us",
      "c ago",
      "c ifi",
      "c ision",
      "d g",
      "d ed",
      "d ut",
      "d raw",
      "e ld",
      "e tor",
      "e arn",
      "e leg",
      "e qual",
      "f as",
      "f ed",
      "f old",
      "f am",
      "f low",
      "f light",
      "f ried",
      "f air",
      "f fect",
      "f acts",
      "g as",
      "g ar",
      "g las",
      "g alan",
      "g raph",
      "h n",
      "h ide",
      "h ang",
      "i v",
      "i ld",
      "i or",
      "i ze",
      "j am",
      "j uegos",
      "k icked",
      "l an",
      "l am",
      "l us",
      "l ung",
      "m ut",
      "m bo",
      "m ood",
      "n y",
      "n ed",
      "n ing",
      "n ail",
      "n ons",
      "n aked",
      "o a",
      "o lin",
      "o ak",
      "o my",
      "p ou",
      "p hi",
      "p ack",
      "p ill",
      "p ast",
      "p ig",
      "p per",
      "p ity",
      "p ub",
      "p air",
      "p ale",
      "p aid",
      "p enc",
      "r id",
      "r ay",
      "r up",
      "r us",
      "r ound",
      "r ance",
      "r hy",
      "s y",
      "s now",
      "s ill",
      "s ink",
      "s ank",
      "s ions",
      "s nat",
      "s na",
      "t es",
      "t ide",
      "t ation",
      "t went",
      "t act",
      "t wice",
      "u a",
      "u d",
      "u mp",
      "u ous",
      "u ished",
      "u cifi",
      "v is",
      "v il",
      "v ast",
      "w ak",
      "w inter",
      "y s",
      "z ed",
      "z en",
      "z ale",
      "” :",
      "he al",
      "he ight",
      "the ast",
      "an o",
      "an ion",
      "an ab",
      "an cho",
      "in f",
      "in ing",
      "in ar",
      "in ch",
      "in ci",
      "and s",
      "is ed",
      "is es",
      "is su",
      "re co",
      "re ach",
      "re cur",
      "re moved",
      "re la",
      "re ction",
      "re cord",
      "re med",
      "re placed",
      "th m",
      "th ir",
      "th igh",
      "at i",
      "at s",
      "at es",
      "at tr",
      "at tained",
      "at tached",
      "as ing",
      "as ion",
      "as king",
      "as uring",
      "as pect",
      "er gy",
      "on y",
      "on ed",
      "to re",
      "to ry",
      "to mor",
      "to graph",
      "of ten",
      "ll ed",
      "ll ars",
      "it ion",
      "st ar",
      "st one",
      "st ab",
      "st ate",
      "ar r",
      "ar ily",
      "en ess",
      "en ced",
      "en ergy",
      "no bler",
      "or d",
      "or y",
      "le ct",
      "le vel",
      "le pr",
      "le ap",
      "le ashed",
      "ad ing",
      "his sing",
      "me ch",
      "me et",
      "me asuring",
      "id er",
      "id ent",
      "se ed",
      "se ver",
      "se lect",
      "be comes",
      "ac c",
      "ac cord",
      "ac coun",
      "ac oa",
      "man ent",
      "man ner",
      "ro b",
      "ro t",
      "ro it",
      "ro ck",
      "ro cks",
      "ro du",
      "ro cher",
      "ro yal",
      "al so",
      "al ist",
      "al arm",
      "we ap",
      "we aving",
      "sa ve",
      "sa fe",
      "sh y",
      "sh or",
      "sh are",
      "sh ook",
      "sh ank",
      "with drew",
      "ti mid",
      "-- -",
      "li me",
      "li vers",
      "un clear",
      "un cramped",
      "un leashed",
      "fe ated",
      "fe cti",
      "bo de",
      "ag es",
      "ag ic",
      "ag ua",
      "ag ony",
      "ch in",
      "ch ange",
      "for ms",
      "for ced",
      "so aked",
      "ir t",
      "ir ides",
      "ha ul",
      "ha usted",
      "ur inated",
      "ent al",
      "co st",
      "co lo",
      "co pe",
      "co mb",
      "ne cted",
      "ne ither",
      "ce mber",
      "thought s",
      "ther n",
      "hand i",
      "hand some",
      "am ation",
      "do cks",
      "do zen",
      "do llars",
      "il s",
      "il ed",
      "il ated",
      "mu s",
      "mu lus",
      "ge l",
      "ill us",
      "wh y",
      "sp are",
      "sp ort",
      "---- -",
      "de tail",
      "de feat",
      "de vise",
      "de feated",
      "up per",
      "can t",
      "tr ave",
      "tr agic",
      "ca ut",
      "su m",
      "su it",
      "ta bly",
      "back s",
      "back ed",
      "back ing",
      "ull y",
      "str aw",
      "great er",
      "ss ion",
      "pe ak",
      "po l",
      "po t",
      "po or",
      "po et",
      "po cket",
      "see m",
      "see med",
      "te ach",
      "wor n",
      "wor se",
      "wor ry",
      "wor ried",
      "per manent",
      "wo men",
      "con tain",
      "con cer",
      "con stru",
      "con vers",
      "con nected",
      "ab solut",
      "ab lan",
      "what ever",
      "br acing",
      "ex c",
      "ex t",
      "ex cl",
      "ex hausted",
      "cle ared",
      "bl ed",
      "bl ad",
      "tur b",
      "look s",
      "ste w",
      "my self",
      "my stic",
      "ju ic",
      "know ledge",
      "sun g",
      "sun rise",
      "ma je",
      "et ching",
      "light er",
      "light ness",
      "fore head",
      "fore arms",
      "fore finger",
      "hat e",
      "hat ed",
      "ra pi",
      "ra ise",
      ".) (",
      "long ed",
      "ess enti",
      "mb ers",
      "think s",
      "rit ual",
      "ble ms",
      "ting uished",
      "In side",
      "cut s",
      "who m",
      "big gest",
      "big ger",
      "pro se",
      "pro ve",
      "pro te",
      "pro ving",
      "pro pri",
      "pro bably",
      "pro blems",
      "che cked",
      "hook s",
      "thr ust",
      "under current",
      "cr ushed",
      "cr ucifi",
      "slow ed",
      "spe ci",
      "bow s",
      "cir rus",
      "ite ly",
      "har sh",
      "sto p",
      "sto r",
      "sto re",
      "shi ver",
      "shi ft",
      "shi ps",
      "shi pped",
      "shi vered",
      "int ed",
      "int rodu",
      "nor mal",
      "nor theast",
      "rest s",
      "di pping",
      "di rection",
      "pre su",
      "pre cision",
      "pre ssion",
      "ten ed",
      "hit ting",
      "sl a",
      "sl ave",
      "tail s",
      "clo ser",
      "clo sing",
      "tre m",
      "start ing",
      "set ting",
      "car ap",
      "ris t",
      "ris es",
      "Whe re",
      "sc oo",
      "sc ars",
      "vel and",
      "point s",
      "point ed",
      "point ment",
      "cor al",
      "cor respond",
      "dis g",
      "dis ap",
      "dis illus",
      "dis turb",
      "dis tinguished",
      "ine ffect",
      "comp l",
      "comp ared",
      "comp anion",
      "dro p",
      "pain ful",
      "deep est",
      "open ing",
      "od ds",
      "pr oud",
      "pr acti",
      "pr inci",
      "beg in",
      "act ual",
      "spo t",
      "spo on",
      "ap art",
      "mat ches",
      "com ments",
      "tell s",
      "feeling s",
      "say s",
      "ty pe",
      "circle s",
      "simp ly",
      "call s",
      "je lly",
      "part s",
      "sal ted",
      "vo mit",
      "thre w",
      "experi enced",
      "straight ened",
      "Co bre",
      "Man olin",
      "bu mp",
      "bu ild",
      "la pping",
      "happ ily",
      "sure ly",
      "ef fecti",
      "gr ound",
      "mi les",
      "inn ati",
      "smell ing",
      "foo ted",
      "sli ce",
      "play ing",
      "circl ed",
      "Do lphin",
      "im ag",
      "imp ress",
      "loo p",
      "tal ked",
      "love ly",
      "wonder ful",
      "\"( “",
      "pat ch",
      "pat tern",
      "par ti",
      "spur s",
      "sug ar",
      "clean ed",
      "clean ly",
      "beautif ully",
      "jer king",
      "tight ened",
      "moment s",
      "slant ed",
      "kne e",
      "kne lt",
      "mon th",
      "pri mit",
      "cho pped",
      "move ments",
      "suff er",
      "plank s",
      "cramp ing",
      "simple st",
      "friend ly",
      "Be ll",
      "St ay",
      "find s",
      "find ing",
      "pho tograph",
      "run s",
      "sup pose",
      "treat ed",
      "wed ge",
      "roll ing",
      "sharp ly",
      "fear less",
      "necess arily",
      "dec ides",
      "dec ision",
      "plan s",
      "To lls",
      "app ro",
      "flat tened",
      "por po",
      "stre t",
      "feed ing",
      "motion less",
      "De cember",
      "cu mulus",
      "emp ty",
      "flo or",
      "mil k",
      "pal ms",
      "paper s",
      "tou ching",
      "val ue",
      "incre ase",
      "incre asing",
      "eri can",
      "stick s",
      "bean s",
      "tra ps",
      "tra itor",
      "trail ing",
      "stru gg",
      "conv iction",
      "project ed",
      "carry ing",
      "195 1",
      "195 2",
      "195 4",
      "comfor tably",
      "solid ly",
      "bottle s",
      "Who m",
      "bare footed",
      "fill ed",
      "main tained",
      "nat ure",
      "pun ched",
      "rub ber",
      "reve als",
      "enti re",
      "wild ly",
      "ifi cant",
      "dep ths",
      "lot tery",
      "poison ing",
      "193 6",
      "complete ly",
      "phosphore scent",
      ".. .\"",
      "Ci vil",
      "HE MIN",
      "Ped ro",
      "coun sel",
      "danger ous",
      "fi re",
      "fl our",
      "fail ure",
      "gut ted",
      "ian s",
      "lone liness",
      "na use",
      "prom ise",
      "prom ised",
      "sign ificant",
      "anim al",
      "inte rests",
      "invol ve",
      "invol ved",
      "resp on",
      "chang es",
      "qual ity",
      "swallow ing",
      "194 0",
      "194 8",
      "wait er",
      "wait ing",
      "drift ing",
      "desper ate",
      "desper ately",
      "import ance",
      "burn ed",
      "Cle ar",
      "Cle veland",
      "Every thing",
      "Jo hn",
      "Other s",
      "Ri gel",
      "fa ult",
      "fa ith",
      "gu ano",
      "name s",
      "squ id",
      "squ are",
      "wid en",
      "refe rees",
      "repe ated",
      "repe tit",
      "relation ship",
      "relation ships",
      "ene my",
      "lead er",
      "leag ue",
      "leag ues",
      "week s",
      "tran sl",
      "suc cess",
      "person al",
      "percepti veness",
      "contest s",
      "bleed ing",
      "present ed",
      "interpre tation",
      "reveal ed",
      "AN D",
      "Am erican",
      "Pe ople",
      "Ti me",
      "dou ble",
      "dam ental",
      "dra wing",
      "econ omy",
      "fo llowed",
      "fac tory",
      "fun damental",
      "fif teen",
      "fig ure",
      "jo ined",
      "nour ishment",
      "sca ven",
      "tro p",
      "tour ists",
      "var ious",
      "anic ally",
      "rect ly",
      "article s",
      "orig inal",
      "shri mps",
      "termin al",
      "destru ction",
      "capt ure",
      "post ure",
      "concentr ation",
      "plac es",
      "expl ain",
      "myster ies",
      "hoist ed",
      "claw s",
      "brea the",
      "cheer ful",
      "dimen sion",
      "compar ison",
      "appe ar",
      "pivo ted",
      "swir l",
      "grace ful",
      "minut e",
      "situ ation",
      "supp ly",
      "occ asion",
      "ticul ate",
      "activ ities",
      "publ ished",
      "south west",
      "discuss ions",
      "mirror s",
      "craftsman ship",
      "18 9",
      "Bey ond",
      "Bless ed",
      "Bost on",
      "Ch rist",
      "Cas ablan",
      "Chi cago",
      "Cinc innati",
      "Du rocher",
      "Dent uso",
      "Det roit",
      "Dod gers",
      "Eu rope",
      "Fare well",
      "GW AY",
      "Gu anab",
      "Gon zale",
      "Ind ians",
      "Isl ands",
      "Jes us",
      "Lou is",
      "Mc Graw",
      "Oft en",
      "Sh ould",
      "Sar gas",
      "Tho se",
      "ban anas",
      "bas ket",
      "bal ance",
      "boo m",
      "bus iness",
      "bang ing",
      "balan ced",
      "blot ches",
      "cus hi",
      "dut y",
      "glas s",
      "galan o",
      "jam med",
      "lam ps",
      "mut ilated",
      "mbo ls",
      "nons ense",
      "pou red",
      "pill ow",
      "pub lic",
      "penc il",
      "rup t",
      "rhy thm",
      "sy mbols",
      "sill y",
      "sna pped",
      "twent y",
      "wak en",
      "ancho red",
      "inar ticulate",
      "rela x",
      "remed y",
      "thir ty",
      "aspect s",
      "tomor row",
      "lepr ous",
      "mech anically",
      "weap on",
      "safe ty",
      "bode ga",
      "irides cent",
      "colo red",
      "sport s",
      "contain er",
      "convers ation",
      "absolut e",
      "excl amation",
      "mystic ism",
      "rapi er",
      "propri etor",
      "carap aced",
      "correspond ent",
      "disap pointment",
      "disillus ion",
      "jelly fish",
      "effecti ve",
      "primit ive",
      "HEMIN GWAY",
      "occasion al",
      "Casablan ca",
      "Guanab acoa",
      "Gonzale z",
      "Sargas so",
      "\" '",
      "\" ..",
      "' '",
      ") (",
      ", .\"",
      ". '",
      ". \"(",
      "1 4",
      "1 5",
      "2 1",
      "2 2",
      "5 3",
      "6 0",
      "6 5",
      "7 0",
      "8 00",
      "? (",
      "? )",
      "A M",
      "A X",
      "A do",
      "A ge",
      "A ct",
      "A ren",
      "A men",
      "A pri",
      "A rt",
      "A cross",
      "A gu",
      "B E",
      "B N",
      "B l",
      "B o",
      "B y",
      "B ase",
      "B lack",
      "C H",
      "C R",
      "C he",
      "C at",
      "C ha",
      "C am",
      "C are",
      "C ard",
      "C ab",
      "C ity",
      "C lean",
      "C ons",
      "C ram",
      "C AM",
      "D a",
      "D id",
      "D am",
      "D im",
      "E A",
      "E S",
      "E r",
      "E s",
      "E ight",
      "E shark",
      "F ar",
      "F ight",
      "F ive",
      "F lor",
      "F rance",
      "G e",
      "G re",
      "G er",
      "G race",
      "G ran",
      "H at",
      "H as",
      "H er",
      "H ard",
      "H alf",
      "H aven",
      "I E",
      "I m",
      "I ll",
      "I mag",
      "I BN",
      "J our",
      "J ame",
      "K an",
      "K IN",
      "L D",
      "L L",
      "L i",
      "L o",
      "L and",
      "L ight",
      "L ook",
      "L ig",
      "L uck",
      "L ife",
      "L ashed",
      "L ord",
      "L IE",
      "M i",
      "M on",
      "M other",
      "M art",
      "M ic",
      "M os",
      "M AN",
      "M AR",
      "M AX",
      "N e",
      "N at",
      "N one",
      "N ation",
      "N either",
      "N ES",
      "O c",
      "O ri",
      "O ak",
      "O bv",
      "O LD",
      "P l",
      "P r",
      "P ar",
      "P ro",
      "P ark",
      "P ab",
      "P rose",
      "P ER",
      "P BE",
      "R o",
      "R ed",
      "R ig",
      "R ises",
      "S l",
      "S hi",
      "S ac",
      "S ent",
      "S te",
      "S low",
      "S ure",
      "S ail",
      "S upper",
      "S CR",
      "S EA",
      "T it",
      "T or",
      "T oo",
      "T ru",
      "T ech",
      "T ake",
      "T rees",
      "U p",
      "U su",
      "U nd",
      "W h",
      "W i",
      "W on",
      "W hi",
      "W ill",
      "W rit",
      "W ake",
      "Y our",
      "a o",
      "a u",
      "a ple",
      "a ped",
      "a ward",
      "a im",
      "a wash",
      "b and",
      "b en",
      "b ir",
      "b ri",
      "b ent",
      "b lin",
      "b il",
      "b ight",
      "b lo",
      "b ound",
      "b ind",
      "b ate",
      "b end",
      "b ite",
      "b ank",
      "b io",
      "b age",
      "b ser",
      "b ted",
      "b ased",
      "b ene",
      "b bled",
      "c y",
      "c ing",
      "c ad",
      "c hi",
      "c ow",
      "c up",
      "c ong",
      "c ig",
      "c red",
      "c rit",
      "c ation",
      "c ure",
      "c ult",
      "c inated",
      "d ull",
      "d ig",
      "d art",
      "d ue",
      "d ive",
      "d ul",
      "d ous",
      "d uck",
      "d ru",
      "d ged",
      "d rum",
      "d ded",
      "d irt",
      "e g",
      "e ar",
      "e en",
      "e le",
      "e el",
      "e qui",
      "e gg",
      "e vol",
      "e mer",
      "e rect",
      "f r",
      "f er",
      "f ad",
      "f ut",
      "f al",
      "f li",
      "f lin",
      "f ide",
      "f ra",
      "f ic",
      "f right",
      "f las",
      "f ru",
      "f act",
      "f ulf",
      "f ond",
      "f aced",
      "f oc",
      "f acing",
      "f lapping",
      "g n",
      "g s",
      "g en",
      "g ly",
      "g li",
      "g all",
      "g am",
      "g ill",
      "g her",
      "g then",
      "g ra",
      "g ate",
      "g row",
      "g ru",
      "g lor",
      "g ious",
      "g ues",
      "g alanos",
      "g ress",
      "g enc",
      "g aged",
      "g store",
      "h ull",
      "h its",
      "h int",
      "h orn",
      "h ides",
      "i as",
      "i er",
      "i al",
      "i ent",
      "i co",
      "i mu",
      "i et",
      "i que",
      "i enti",
      "i ents",
      "j ac",
      "j un",
      "j ack",
      "j our",
      "j agg",
      "j ok",
      "k in",
      "k er",
      "l is",
      "l on",
      "l id",
      "l un",
      "l oud",
      "l ity",
      "l sto",
      "l ance",
      "l ap",
      "l ude",
      "l ists",
      "m n",
      "m as",
      "m ad",
      "m un",
      "m ate",
      "m ort",
      "m age",
      "m ass",
      "m unity",
      "n n",
      "n one",
      "n are",
      "n ers",
      "n ine",
      "n ap",
      "n ts",
      "n ations",
      "n ical",
      "n arr",
      "n alist",
      "n ique",
      "o is",
      "o le",
      "o id",
      "o ve",
      "o il",
      "o de",
      "o lo",
      "o per",
      "o ath",
      "o sen",
      "o bey",
      "o ssible",
      "o bv",
      "o ys",
      "o bser",
      "p y",
      "p in",
      "p to",
      "p il",
      "p line",
      "p ark",
      "p up",
      "p ard",
      "p low",
      "p ue",
      "p ace",
      "p ting",
      "p ment",
      "p ite",
      "p row",
      "p ated",
      "p ap",
      "p ared",
      "p rising",
      "p ins",
      "p ages",
      "r ou",
      "r ac",
      "r ain",
      "r ange",
      "r ushed",
      "r aked",
      "r acing",
      "s as",
      "s oo",
      "s ke",
      "s mo",
      "s if",
      "s her",
      "s light",
      "s ive",
      "s ick",
      "s car",
      "s lic",
      "s ses",
      "s lightly",
      "s lot",
      "s ash",
      "s cope",
      "s fer",
      "s nare",
      "t w",
      "t all",
      "t ent",
      "t ant",
      "t ite",
      "t ask",
      "t tery",
      "t tes",
      "t issu",
      "t inted",
      "u red",
      "u sea",
      "u ine",
      "u ated",
      "u gg",
      "u ences",
      "u dder",
      "u dent",
      "u gly",
      "v all",
      "v ent",
      "v ant",
      "v ation",
      "v ice",
      "v ision",
      "v enty",
      "v ably",
      "v irt",
      "w n",
      "w and",
      "w is",
      "w ren",
      "w ars",
      "w inner",
      "w ins",
      "x ing",
      "x ion",
      "y on",
      "y ing",
      "y zed",
      "z or",
      "z ard",
      "z ation",
      "z zy",
      "“ …",
      "” )",
      "… ”)",
      "he at",
      "he ll",
      "he st",
      "he nd",
      "he mi",
      "he ries",
      "he aven",
      "the d",
      "the e",
      "the at",
      "the us",
      "an e",
      "an no",
      "an try",
      "an ces",
      "an cy",
      "an nn",
      "in ion",
      "in ation",
      "in ous",
      "in cor",
      "in ary",
      "in ches",
      "in als",
      "in shore",
      "in fl",
      "in ative",
      "in wards",
      "in destru",
      "in ois",
      "is her",
      "is ped",
      "is try",
      "is ions",
      "is cent",
      "is hes",
      "is cope",
      "is ode",
      "re e",
      "re as",
      "re ed",
      "re be",
      "re ly",
      "re li",
      "re ver",
      "re mo",
      "re mp",
      "re ple",
      "re qu",
      "re put",
      "re pr",
      "re current",
      "re lic",
      "re turned",
      "re ci",
      "re fresh",
      "re min",
      "re mon",
      "re move",
      "re lives",
      "re mind",
      "re main",
      "re turns",
      "re mark",
      "re port",
      "re lease",
      "re baited",
      "re marks",
      "re vis",
      "re treated",
      "re places",
      "re hend",
      "th y",
      "th day",
      "th ick",
      "th irst",
      "th less",
      "th od",
      "th ump",
      "th ole",
      "ou ble",
      "ou ching",
      "at t",
      "at mo",
      "at ter",
      "at ic",
      "at ure",
      "at tain",
      "at form",
      "at ory",
      "as es",
      "as ter",
      "as ide",
      "as ped",
      "as si",
      "as hore",
      "er t",
      "er ous",
      "er ally",
      "er ring",
      "er able",
      "er os",
      "er cepti",
      "er heads",
      "on t",
      "on gest",
      "ed ges",
      "ing le",
      "ing red",
      "to e",
      "to m",
      "to we",
      "to ps",
      "to pped",
      "to mat",
      "to wed",
      "to ssed",
      "to ber",
      "to wn",
      "of ane",
      "ll ing",
      "ll ation",
      "ll ies",
      "it a",
      "it ted",
      "it ions",
      "it ud",
      "st en",
      "st ro",
      "st ur",
      "st ack",
      "st ant",
      "st aking",
      "st age",
      "st ated",
      "st ung",
      "st agg",
      "st aked",
      "st aring",
      "st aple",
      "ar ri",
      "ar my",
      "ar able",
      "en ing",
      "en cour",
      "en ges",
      "en thus",
      "en jo",
      "en gaged",
      "no sed",
      "no tic",
      "no bil",
      "no dded",
      "or ge",
      "or che",
      "le x",
      "le ver",
      "le ge",
      "le af",
      "le mon",
      "le ph",
      "le ments",
      "le aving",
      "le aped",
      "le mn",
      "gh ing",
      "ad o",
      "ad s",
      "ad just",
      "ad mit",
      "ad ian",
      "ad dressed",
      "ad uated",
      "ad vant",
      "me t",
      "me tal",
      "me ts",
      "me llowed",
      "me theus",
      "me rely",
      "me thod",
      "id a",
      "id ing",
      "id ge",
      "id ity",
      "id ering",
      "id ences",
      "id ual",
      "id enti",
      "se st",
      "se where",
      "se wed",
      "se cted",
      "se vered",
      "se ize",
      "se venty",
      "be ha",
      "be tr",
      "be ers",
      "be sides",
      "be aring",
      "be longed",
      "be arable",
      "be ads",
      "wi ping",
      "wi cked",
      "hi ll",
      "ac y",
      "ac ro",
      "ac ity",
      "ac tor",
      "ac qui",
      "ac ious",
      "ac compl",
      "man tic",
      "man liness",
      "ow ing",
      "ow ded",
      "He re",
      "He art",
      "ut ing",
      "ut al",
      "ro d",
      "ro ar",
      "ro am",
      "ro de",
      "ro vise",
      "ro mantic",
      "fis t",
      "fis hes",
      "al k",
      "al tern",
      "al ian",
      "al bat",
      "al titude",
      "al ized",
      "al yzed",
      "es o",
      "es ca",
      "es pue",
      "we lt",
      "we igh",
      "ay s",
      "ay al",
      "ly ing",
      "fish less",
      "sa pped",
      "sa int",
      "sh old",
      "sh out",
      "sh one",
      "sh am",
      "sh ru",
      "sh ap",
      "sh ared",
      "sh ining",
      "sh udder",
      "sh ingle",
      "with in",
      "with held",
      "ti p",
      "ti ous",
      "ti pped",
      "li o",
      "li p",
      "li er",
      "li ed",
      "li ver",
      "li ce",
      "li mit",
      "li kes",
      "li fic",
      "li zation",
      "un k",
      "un t",
      "un lo",
      "un te",
      "un av",
      "un end",
      "un ite",
      "un less",
      "un just",
      "un hooked",
      "un belie",
      "un lucky",
      "un rolled",
      "un tied",
      "un intelligent",
      "un worthy",
      "un knot",
      "un tar",
      "un armed",
      "un pleasant",
      "un defeated",
      "un rolling",
      "un necessarily",
      "un dul",
      "un bearable",
      "not e",
      "not ing",
      "fe ction",
      "fe min",
      "fe ared",
      "fe athers",
      "bo ther",
      "bo red",
      "bo lt",
      "bo dies",
      "ag ul",
      "ag reed",
      "ain ing",
      "ch all",
      "ch ur",
      "ch nique",
      "ch ances",
      "ch alk",
      "all eg",
      "ver n",
      "ver te",
      "thou t",
      "for th",
      "for get",
      "for tun",
      "for ged",
      "for ks",
      "so re",
      "so ak",
      "so ap",
      "so les",
      "so ared",
      "so res",
      "so phy",
      "so cket",
      "so lemn",
      "ir on",
      "ir ing",
      "ir it",
      "ir rit",
      "ha ven",
      "ha ving",
      "ha zard",
      "ri ad",
      "ri ch",
      "ri ver",
      "ri cal",
      "ri ction",
      "ri pping",
      "ur b",
      "ur al",
      "ur ally",
      "ur ring",
      "ur ges",
      "now ledge",
      "ent ity",
      "ent ered",
      "ent rance",
      "lin k",
      "lin er",
      "lin tered",
      "out fi",
      "out grow",
      "co t",
      "co re",
      "co ve",
      "co al",
      "co ck",
      "co cks",
      "co pper",
      "co lon",
      "co agul",
      "mo ist",
      "mo tor",
      "ne l",
      "ne at",
      "ne st",
      "ne ar",
      "ne are",
      "ne ys",
      "ce ed",
      "ce ive",
      "ce ment",
      "ce remon",
      "thought less",
      "thought ful",
      "one self",
      "hand line",
      "hand led",
      "am i",
      "am ming",
      "am bre",
      "am bul",
      "am atic",
      "are ness",
      "are ttes",
      "if ing",
      "wat ches",
      "do m",
      "do ve",
      "mu shy",
      "ack s",
      "ack ening",
      "ack nowledge",
      "ge lat",
      "ge lio",
      "ter m",
      "ter s",
      "ter ly",
      "ter wo",
      "ter ms",
      "ter ior",
      "ill ing",
      "ill ment",
      "wh ore",
      "sp ar",
      "sp ent",
      "sp ine",
      "sp here",
      "sp lash",
      "sp len",
      "sp lashed",
      "sp inal",
      "sp ends",
      "sp ray",
      "sp erous",
      "sp lice",
      "sp irit",
      "sp lintered",
      "sp illing",
      "---- “",
      "de l",
      "de w",
      "de ed",
      "de fin",
      "de cor",
      "de vo",
      "de cepti",
      "de tached",
      "de termin",
      "de pression",
      "de bate",
      "de vice",
      "de ceive",
      "de terior",
      "It s",
      "It alian",
      "up on",
      "up ation",
      "up ward",
      "own er",
      "ep ing",
      "ep isode",
      "water s",
      "water drop",
      "can cer",
      "can yon",
      "tr ack",
      "tr ace",
      "tr ough",
      "tr uck",
      "tr ust",
      "tr acts",
      "tr usted",
      "tr ouble",
      "tr unk",
      "tr aining",
      "boy s",
      "mp se",
      "mp ion",
      "mp any",
      "mp tion",
      "mp ered",
      "ca ve",
      "ca pe",
      "ca ble",
      "ca ps",
      "ca pped",
      "ca pes",
      "ck en",
      "ide as",
      "lo ad",
      "lo ving",
      "lo cal",
      "lo ves",
      "lo gg",
      "lo sing",
      "lo ses",
      "lo yed",
      "lo yal",
      "lo ading",
      "lo cation",
      "lo sophy",
      "ard s",
      "ard ice",
      "ion ist",
      "su ade",
      "su ited",
      "su cking",
      "su sten",
      "ta p",
      "ta le",
      "ta pe",
      "ta vern",
      "back swe",
      "back wards",
      "back ground",
      "ull ed",
      "str ay",
      "str ate",
      "str ang",
      "str agg",
      "str ongest",
      "sk inning",
      "great ness",
      "ft ing",
      "pe on",
      "pe bbled",
      "po p",
      "po lit",
      "po sed",
      "po sit",
      "po sing",
      "go ds",
      "some what",
      "some where",
      "see ing",
      "must n",
      "te ar",
      "te xt",
      "te aring",
      "te leph",
      "te chnique",
      "te mpered",
      "wor st",
      "per y",
      "per io",
      "per sed",
      "per fect",
      "per ils",
      "per iscope",
      "per suade",
      "lf o",
      "wo mb",
      "other wise",
      "con ste",
      "con qu",
      "con sc",
      "con den",
      "con tro",
      "con tour",
      "con tempt",
      "con tact",
      "con sum",
      "con stant",
      "art istry",
      "ab used",
      "ab rupt",
      "pp es",
      "der ful",
      "side ways",
      "ue y",
      "br aked",
      "br utal",
      "has iz",
      "pl ung",
      "pl ating",
      "pl acing",
      "pl um",
      "pl ash",
      "pl atform",
      "new s",
      "ex ped",
      "ex ist",
      "ex plan",
      "ex pect",
      "ex pression",
      "ex trem",
      "over head",
      "over simp",
      "over lapping",
      "should ered",
      "cle s",
      "cle us",
      "ink les",
      "bl ing",
      "bl urring",
      "tur ing",
      "into ler",
      "ste ep",
      "ste el",
      "my ths",
      "my riad",
      "us ing",
      "sea port",
      "af fin",
      "af fect",
      "af fection",
      "ju dg",
      "ju dged",
      "sun ny",
      "sun burned",
      "ho le",
      "ho ea",
      "ho les",
      "ho lid",
      "ma w",
      "ma x",
      "ma th",
      "men tion",
      "men dous",
      "ind ic",
      "ind iv",
      "et ition",
      "pull s",
      "light ed",
      "cl ue",
      "cl ues",
      "cl ass",
      "fore arm",
      "fore ign",
      "fore shadow",
      "hat che",
      "ra zor",
      "their s",
      "kill ers",
      "long s",
      "long wing",
      "long test",
      "long itud",
      "well s",
      "mb ound",
      "saw ed",
      "ive s",
      "ple ase",
      "ple ased",
      "feel s",
      "ble w",
      "ble ached",
      "ble ssed",
      "ic es",
      "ic ally",
      "ic ian",
      "ic ature",
      "ach ingly",
      "In stead",
      "In terwo",
      "In deed",
      "ul ar",
      "ul sive",
      "than ked",
      "turn ing",
      "fast ness",
      "fast est",
      "fast ened",
      "?\" (",
      "writ es",
      "writ ers",
      "ish ing",
      "ish ly",
      "dre sses",
      "whi plash",
      "pro ved",
      "pro spe",
      "pro vo",
      "pro cess",
      "pro bing",
      "pro longed",
      "pro gress",
      "pro sperous",
      "pro longs",
      "bet ting",
      "stead s",
      "stead fastness",
      "No te",
      "ath lete",
      "read ing",
      "end ures",
      "che w",
      "che ap",
      "che ats",
      "hun t",
      "hun ts",
      "sw um",
      "ba ke",
      "ba iled",
      "use s",
      "use less",
      "before hand",
      "sail s",
      "cr ude",
      "cr umb",
      "cr ash",
      "cr isped",
      "cr ouching",
      "cr owded",
      "pt ly",
      "slow er",
      "slow ing",
      "ous ed",
      "ous ly",
      "your s",
      "spe aking",
      "after ward",
      "after wards",
      "after math",
      "ite ment",
      "let on",
      "let ting",
      "har m",
      "har med",
      "har dest",
      "sto red",
      "sto rms",
      "lit erally",
      "si ble",
      "si zed",
      "si pated",
      "si ghing",
      "shi fts",
      "shi eld",
      "int ense",
      "int ended",
      "nor ther",
      "nor thern",
      "face ts",
      "sm iled",
      "sm uting",
      "sm acks",
      "rest riction",
      "through out",
      "di ed",
      "di ver",
      "di pped",
      "di gest",
      "di arr",
      "di rectly",
      "di zzy",
      "pre ach",
      "pre ten",
      "pre ced",
      "pre occ",
      "pre pared",
      "ten ing",
      "ten der",
      "sl ugg",
      "sl amming",
      "sl ackening",
      "off er",
      "off ended",
      "life long",
      "cur ve",
      "ey s",
      "fin al",
      "fin ish",
      "fin ished",
      "fin ned",
      "fin eness",
      "less er",
      "keep ing",
      "aw ake",
      "aw areness",
      "op inion",
      "row s",
      "sin ners",
      "sleep s",
      "sleep y",
      "tre e",
      "tre es",
      "tre mendous",
      "set tle",
      "just ifi",
      "So x",
      "So on",
      "car til",
      "car icature",
      "fight s",
      "fight er",
      "fight ers",
      "hard ness",
      "ris ks",
      "strong ly",
      "sc atter",
      "want s",
      "stren uous",
      "stren gthen",
      "vel s",
      "small er",
      "19 00",
      "What ever",
      "cor rectly",
      "cor rupt",
      "cor del",
      "dis ci",
      "dis tin",
      "dis color",
      "dis graceful",
      "dis tant",
      "dis aster",
      "dis likes",
      "dis persed",
      "dis sipated",
      "fre she",
      "fre sher",
      "comp act",
      "comp ass",
      "comp rehend",
      "comp lex",
      "comp etition",
      "clear ing",
      "bro od",
      "dro ps",
      "dro pping",
      "kn ifing",
      "kn ives",
      "pain ted",
      "pain staking",
      "pain ters",
      "wa ves",
      "wa vering",
      "heav ed",
      "heav iness",
      "ang le",
      "ang ry",
      "ang ular",
      "reme mbers",
      "deep ly",
      "open ly",
      "mast s",
      "ru in",
      "ru thless",
      "she ll",
      "she lf",
      "she lls",
      "she aring",
      "sur f",
      "sur ge",
      "sur prising",
      "ist ed",
      "ist ance",
      "ist ently",
      "arm or",
      "harpoon ed",
      "ail ed",
      "creat ed",
      "hu man",
      "hu bris",
      "hu eso",
      "hur ry",
      "od y",
      "od or",
      "pr ofane",
      "wood s",
      "wood en",
      "beg ged",
      "beg ins",
      "act ed",
      "act ually",
      "spo il",
      "spo ken",
      "spo ons",
      "spo ils",
      "cour tes",
      "mat ing",
      "mat ure",
      "tun as",
      "tun ny",
      "tun nel",
      "wing spread",
      "high way",
      "com ment",
      "com munity",
      "tell ing",
      "ced ing",
      "ces ses",
      "land marks",
      "lat ing",
      "pi les",
      "pas sing",
      "pas ses",
      "tor n",
      "stay s",
      "does n",
      "cal ambre",
      "call oused",
      "dr amatic",
      "part y",
      "ser ved",
      "ser ies",
      "ser ious",
      "ser iously",
      "swi ft",
      "sal ting",
      "sal ao",
      "vo ice",
      "vo ices",
      "thre shold",
      "llow ing",
      "char coal",
      "ket s",
      "experi ment",
      "straight er",
      "Co al",
      "Co ast",
      "Co ler",
      "Co mpany",
      "For d",
      "bu d",
      "bu mps",
      "bu oys",
      "dy ing",
      "dri ve",
      "dri ver",
      "dri ves",
      "fle w",
      "fle as",
      "fle cks",
      "fle xing",
      "wind s",
      "wind less",
      "tru de",
      "strange ly",
      "skill s",
      "skill ed",
      "exce l",
      "swam ps",
      "swam ped",
      "After wards",
      "gr and",
      "gr ind",
      "gr ating",
      "gr asped",
      "gr aduated",
      "gr acious",
      "mi es",
      "pur pose",
      "stri cken",
      "sha ke",
      "tired er",
      "tired ness",
      "need s",
      "need less",
      "conf used",
      "treac heries",
      "Some thing",
      "cold s",
      "cold er",
      "sli me",
      "sli ck",
      "sli my",
      "sli pping",
      "mean time",
      "beat ing",
      "choo se",
      "form ed",
      "form alized",
      "ign ancy",
      "play ers",
      "cord s",
      "On ly",
      "Per ico",
      "ci vi",
      "des ign",
      "des cent",
      "des pair",
      "des ert",
      "eas ed",
      "eas ier",
      "eas terly",
      "im min",
      "im mor",
      "im medi",
      "im mun",
      "imp ly",
      "imp ossible",
      "imp ercepti",
      "imp lements",
      "imp rovise",
      "imp lied",
      "loo ps",
      "loo ped",
      "om ical",
      "om itted",
      "tri p",
      "tri es",
      "tri ump",
      "tri angular",
      "novel ist",
      "road steads",
      "strain ed",
      "Th us",
      "We ek",
      "el ing",
      "el bows",
      "eight een",
      "fri ction",
      "fri gate",
      "ice ber",
      "pat ient",
      "par ticle",
      "par ticul",
      "par alyzed",
      "par ody",
      "sen sit",
      "swe ating",
      "swe eping",
      "war bler",
      "spur t",
      "spur like",
      "sub tle",
      "sub tly",
      "sub mer",
      "sub due",
      "sub urb",
      "sub tracts",
      "close st",
      "close ly",
      "calm er",
      "foot ball",
      "gaff ed",
      "bull et",
      "bull fighter",
      "den oun",
      "gro cer",
      "min able",
      "min imu",
      "sor row",
      "inter ior",
      "inter pol",
      "inter lude",
      "inter sected",
      "inter minable",
      "toward s",
      "blood ed",
      "cloud ing",
      "qui re",
      "qui to",
      "abo ard",
      "bit es",
      "bit ter",
      "bit ten",
      "cre am",
      "cre ased",
      "cre ases",
      "cent s",
      "cent er",
      "kne eling",
      "mon ed",
      "mon olo",
      "pri ce",
      "pri vi",
      "sil ent",
      "real ist",
      "real iz",
[...]
